<unk>	0
<s>	0
</s>	0
,	-2.54937
.	-3.51029
▁и	-3.7289
▁в	-4.24653
а	-4.35675
▁не	-4.36811
▁с	-4.59639
▁на	-4.65921
е	-4.69998
▁что	-4.73801
▁–	-4.79981
и	-4.86606
▁—	-5.00699
▁я	-5.01829
-	-5.10566
у	-5.13307
!	-5.13403
▁по	-5.15449
▁он	-5.17913
м	-5.23681
▁за	-5.3281
?	-5.33298
▁как	-5.36756
...	-5.3724
▁	-5.40934
▁к	-5.41354
▁у	-5.48281
с	-5.49889
я	-5.52437
▁его	-5.56235
;	-5.61667
:	-5.63422
о	-5.64406
то	-5.66064
▁о	-5.72358
▁а	-5.72524
ы	-5.73778
▁вы	-5.73813
▁-	-5.74487
й	-5.77609
▁от	-5.79914
т	-5.87551
▁же	-5.87892
▁это	-5.87981
▁но	-5.90307
ом	-5.92898
▁--	-5.94713
▁все	-5.95035
▁из	-5.95591
▁Я	-5.97716
в	-5.9835
▁она	-6.00909
▁так	-6.01368
▁меня	-6.03214
л	-6.03945
▁то	-6.04386
ю	-6.06698
▁мне	-6.07553
▁было	-6.08335
ли	-6.1058
х	-6.13221
▁при	-6.15161
▁ее	-6.16257
▁бы	-6.16649
ся	-6.17109
ла	-6.22211
ов	-6.2514
▁А	-6.27556
▁до	-6.29852
но	-6.30654
▁про	-6.30804
▁И	-6.32698
н	-6.36256
го	-6.36458
д	-6.3685
ка	-6.3697
▁раз	-6.38977
▁«	-6.39283
▁В	-6.40934
▁только	-6.42893
▁был	-6.43291
р	-6.44062
▁под	-6.44924
ть	-6.4631
ж	-6.4673
▁ты	-6.48113
ой	-6.48361
▁ему	-6.52052
ки	-6.55248
▁Он	-6.55393
▁еще	-6.56471
▁сказал	-6.56919
на	-6.57148
ло	-6.61105
ку	-6.61437
ш	-6.65014
▁со	-6.67445
▁Но	-6.70102
ми	-6.70203
▁об	-6.70988
ь	-6.71988
к	-6.73757
ет	-6.7407
▁ли	-6.74114
▁С	-6.74468
▁уже	-6.76484
▁да	-6.76956
п	-6.77628
ая	-6.77656
▁ни	-6.78217
▁когда	-6.81421
▁Да	-6.82379
ст	-6.85585
те	-6.87013
▁для	-6.87943
не	-6.88366
ами	-6.88811
▁во	-6.88918
▁него	-6.8975
▁быть	-6.91702
▁(	-6.92614
ни	-6.92732
ный	-6.93234
▁теперь	-6.93373
г	-6.95301
▁их	-6.9749
▁себя	-6.97993
▁Не	-6.9888
да	-7.00142
▁мы	-7.00556
з	-7.021
ле	-7.04699
▁даже	-7.05194
ной	-7.05194
▁По	-7.05903
ить	-7.05977
лся	-7.06686
▁была	-7.06883
ый	-7.09048
▁они	-7.09088
ем	-7.09772
▁вас	-7.10178
б	-7.10302
ва	-7.10937
▁без	-7.11867
▁очень	-7.13577
ым	-7.13835
сти	-7.14683
ные	-7.14723
▁вот	-7.15508
▁или	-7.15585
ля	-7.15792
▁вдруг	-7.17282
чи	-7.18723
ны	-7.19092
ах	-7.19602
▁чтобы	-7.19703
ко	-7.20221
ия	-7.20521
по	-7.20641
та	-7.21518
ей	-7.21601
ти	-7.21782
▁того	-7.22116
ке	-7.22197
ил	-7.23145
▁всё	-7.23249
▁себе	-7.24145
▁ко	-7.24424
▁Ну	-7.25238
ен	-7.25265
▁чем	-7.25373
ых	-7.25396
▁На	-7.2559
▁тем	-7.26312
▁человек	-7.27067
▁Это	-7.27196
ие	-7.27421
▁может	-7.27533
ная	-7.27593
▁пере	-7.27753
де	-7.28138
▁есть	-7.2843
▁ей	-7.28678
▁вам	-7.29032
ча	-7.29388
ных	-7.29479
▁были	-7.29503
лись	-7.30909
ые	-7.31516
▁если	-7.31635
ль	-7.31701
за	-7.31926
▁"	-7.3204
▁У	-7.32088
ит	-7.32143
▁Что	-7.32164
ться	-7.32165
ным	-7.32169
▁ничего	-7.32547
ую	-7.32921
▁Она	-7.34246
ого	-7.35554
ра	-7.3687
лась	-7.37191
ч	-7.38858
▁время	-7.38942
ну	-7.39873
ня	-7.39904
ро	-7.40373
ри	-7.40883
▁этого	-7.42228
▁нас	-7.42456
▁будет	-7.42766
нибудь	-7.42973
▁ним	-7.43006
ду	-7.43243
▁сам	-7.43771
▁тебя	-7.44206
▁нет	-7.44496
вер	-7.45677
▁уж	-7.46007
▁потому	-7.46161
▁О	-7.46221
▁опять	-7.46329
▁ней	-7.46575
▁Вы	-7.47227
му	-7.47759
га	-7.4826
▁г	-7.49308
им	-7.52239
▁тебе	-7.52391
па	-7.52466
ись	-7.53404
▁говорил	-7.53727
сть	-7.53917
ного	-7.54968
▁глаза	-7.55455
ать	-7.56177
▁всех	-7.56341
ше	-7.56363
▁том	-7.57319
ам	-7.5736
▁надо	-7.57484
ясь	-7.57659
ру	-7.58041
ре	-7.58163
▁где	-7.58324
че	-7.58466
▁Как	-7.58839
▁б	-7.59073
ок	-7.59364
ий	-7.61202
ился	-7.61241
от	-7.61425
»	-7.61915
ал	-7.62957
▁тоже	-7.6301
▁один	-7.63299
▁перед	-7.63368
▁ж	-7.63371
ную	-7.63937
ви	-7.63979
ши	-7.64445
▁этот	-7.64485
▁мог	-7.64676
▁дело	-7.65325
▁мой	-7.65395
▁сказала	-7.68145
он	-7.68332
▁пред	-7.68455
жи	-7.68863
▁ведь	-7.69257
▁Так	-7.69703
лу	-7.69888
▁своей	-7.70538
▁который	-7.70778
ась	-7.70799
▁тут	-7.71303
▁после	-7.71451
▁Вот	-7.71917
▁потом	-7.72467
▁всегда	-7.72613
ста	-7.73169
ков	-7.73534
▁там	-7.73552
ое	-7.73557
▁больше	-7.74032
▁тогда	-7.7423
▁над	-7.74379
▁свою	-7.74712
кой	-7.74774
пи	-7.74919
▁них	-7.75085
ба	-7.75098
ры	-7.75145
же	-7.75194
▁будто	-7.75798
▁этом	-7.76413
ное	-7.76445
ется	-7.77105
ди	-7.77218
▁более	-7.77313
ще	-7.77943
▁которые	-7.78013
ша	-7.78194
▁лицо	-7.78297
ешь	-7.78466
ма	-7.78586
ан	-7.78631
ят	-7.78703
▁знаю	-7.78884
▁лет	-7.80718
▁М	-7.81046
▁К	-7.81182
▁Ты	-7.81526
▁день	-7.81919
▁эти	-7.82504
▁много	-7.82534
ту	-7.82746
▁Нет	-7.83656
».	-7.84026
ар	-7.84421
ев	-7.85032
▁жизни	-7.85876
▁кто	-7.86082
▁За	-7.86114
▁стал	-7.86284
▁почти	-7.87593
са	-7.87758
▁слова	-7.88193
▁Все	-7.88252
во	-7.88311
▁сказать	-7.88756
▁совсем	-7.88814
ось	-7.8924
ения	-7.89245
мо	-7.89416
▁чтоб	-7.89589
ют	-7.89593
▁спросил	-7.89663
ты	-7.89917
ите	-7.89938
▁несколько	-7.90667
▁начал	-7.90671
▁п	-7.90712
иться	-7.91074
об	-7.91094
лось	-7.91392
ве	-7.91472
ыми	-7.91913
или	-7.92486
ний	-7.92682
▁чего	-7.92807
▁руки	-7.92861
▁говорит	-7.93635
▁людей	-7.93727
▁руку	-7.93847
ив	-7.95222
ии	-7.96168
▁нее	-7.96671
▁всего	-7.96739
!..	-7.97401
▁пол	-7.97445
нее	-7.97771
бы	-7.98274
▁князь	-7.98306
ги	-7.99231
▁жизнь	-7.99235
до	-7.998
ном	-7.99864
▁те	-7.9987
▁можно	-8.00207
]	-8.00444
ф	-8.00813
▁пре	-8.0082
хо	-8.01324
▁голову	-8.01378
жа	-8.01535
▁какой	-8.01561
▁им	-8.01765
ин	-8.01952
▁хорошо	-8.0221
▁всем	-8.02554
нов	-8.02684
▁люди	-8.02898
ер	-8.02908
ком	-8.02968
лю	-8.03015
бе	-8.03049
▁лучше	-8.03176
ство	-8.03259
▁два	-8.04183
▁никогда	-8.04426
сь	-8.04685
ца	-8.04986
ою	-8.05066
▁своего	-8.05156
▁другой	-8.05289
▁стар	-8.05366
ение	-8.05406
▁ре	-8.05515
»,	-8.05544
ние	-8.05604
▁здесь	-8.05655
▁точно	-8.05759
▁говорить	-8.07565
▁между	-8.07702
▁тотчас	-8.07877
▁друг	-8.07887
▁брат	-8.08849
ник	-8.09186
тельно	-8.09221
▁вер	-8.09975
s	-8.09991
▁человека	-8.10468
▁свои	-8.11387
▁наконец	-8.11854
▁совершенно	-8.11986
бо	-8.12377
▁тот	-8.12429
▁могу	-8.1246
▁дела	-8.12719
ща	-8.12804
мер	-8.12845
ней	-8.13349
вед	-8.1355
▁хотел	-8.14467
▁всю	-8.1498
▁нем	-8.15494
▁дома	-8.1569
▁Д	-8.15994
▁пор	-8.16258
▁этой	-8.16382
▁такой	-8.16537
▁з	-8.16537
)	-8.1664
мы	-8.16649
▁Когда	-8.17182
нии	-8.17273
ными	-8.17296
пе	-8.1738
род	-8.176
▁знал	-8.1766
це	-8.17825
гу	-8.17877
▁нам	-8.18089
▁свое	-8.18275
▁против	-8.18379
▁При	-8.18472
ел	-8.18689
▁хотя	-8.18761
▁эту	-8.19263
ились	-8.19432
ова	-8.20206
▁через	-8.20278
▁голос	-8.20411
лы	-8.20448
▁просто	-8.20841
▁нему	-8.20913
▁род	-8.20958
▁одно	-8.2109
▁думал	-8.2121
ров	-8.21421
▁рас	-8.21454
▁эта	-8.21627
▁ш	-8.21815
чь	-8.21839
▁Иван	-8.22244
e	-8.2254
ской	-8.23079
a	-8.2364
▁три	-8.23787
▁минуту	-8.23813
▁отвечал	-8.24381
▁Мне	-8.245
ол	-8.24681
▁Мы	-8.2489
▁та	-8.25435
ства	-8.25927
вать	-8.26014
ум	-8.26051
ками	-8.26165
ает	-8.26294
▁буду	-8.2633
▁воз	-8.26814
тор	-8.26816
илась	-8.2698
▁де	-8.27065
ила	-8.27134
ию	-8.27278
▁долго	-8.27359
▁кажется	-8.274
▁весь	-8.27581
чу	-8.27877
▁ту	-8.28319
ния	-8.28336
щи	-8.28449
!»	-8.28512
▁хоть	-8.28566
▁особенно	-8.28604
ец	-8.29004
ор	-8.29154
▁па	-8.29357
али	-8.29395
ится	-8.29399
▁которой	-8.2947
мен	-8.29647
ются	-8.29778
бу	-8.30257
▁казалось	-8.30433
лен	-8.30465
).	-8.30948
си	-8.31014
▁т	-8.31078
тер	-8.31215
▁видел	-8.31614
вы	-8.31943
ска	-8.31957
▁нужно	-8.32165
ья	-8.3226
▁Про	-8.32283
▁своих	-8.32299
▁прежде	-8.32793
▁своим	-8.33455
▁вместе	-8.33653
▁такое	-8.33911
▁тому	-8.33998
▁Петр	-8.34073
▁сейчас	-8.342
▁продолжал	-8.34475
▁д	-8.34839
ос	-8.35045
нь	-8.35369
▁прямо	-8.35408
▁нельзя	-8.35627
▁сердце	-8.3575
вшись	-8.35935
вор	-8.35936
▁полу	-8.35954
вал	-8.37181
▁стало	-8.37657
0	-8.38135
t	-8.38332
тро	-8.38359
кий	-8.38497
ели	-8.38648
▁которого	-8.38781
ала	-8.38966
▁мной	-8.38978
▁вид	-8.39117
ци	-8.39126
▁свет	-8.39466
▁П	-8.39711
▁моей	-8.4019
лет	-8.4025
▁моя	-8.40396
таки	-8.40589
ск	-8.40629
▁кон	-8.40646
.)	-8.40857
▁мое	-8.41325
▁пе	-8.41605
▁мать	-8.4189
ости	-8.41925
▁вопрос	-8.4199
юсь	-8.4212
▁ус	-8.4223
цы	-8.42321
▁народ	-8.42379
▁глазами	-8.42481
их	-8.42489
про	-8.42576
▁готов	-8.42652
▁которая	-8.42832
гл	-8.4284
▁ум	-8.42885
▁Во	-8.43305
ха	-8.43467
лов	-8.43508
o	-8.43563
"	-8.43941
▁Со	-8.44026
▁куда	-8.44656
зна	-8.44839
со	-8.45246
нул	-8.45308
стью	-8.45361
ому	-8.45535
ут	-8.45852
▁гор	-8.46309
▁свой	-8.46312
▁именно	-8.46457
ность	-8.46558
1	-8.46625
▁взял	-8.46772
▁быстро	-8.47057
ц	-8.47618
▁От	-8.48134
ский	-8.48199
ды	-8.48848
▁То	-8.48938
зи	-8.49279
▁Г	-8.49445
▁лица	-8.49463
▁должен	-8.49634
▁назад	-8.49642
▁Если	-8.49712
▁старик	-8.49851
▁вся	-8.50144
▁знает	-8.50211
вший	-8.50418
▁одного	-8.50617
ез	-8.50678
▁Иванович	-8.50824
ности	-8.50954
ель	-8.51008
из	-8.51426
чит	-8.51887
ред	-8.52128
▁Ф	-8.52257
▁этих	-8.52336
▁ма	-8.52363
▁Б	-8.52381
ишь	-8.52452
▁Ш	-8.52518
▁ну	-8.52575
▁бо	-8.52658
▁тихо	-8.52942
▁Ах	-8.53059
ость	-8.53285
▁давно	-8.53286
▁город	-8.53297
▁хочу	-8.53559
вин	-8.53741
ского	-8.53803
▁Марья	-8.53878
▁молча	-8.53885
ее	-8.53905
▁бес	-8.53996
▁До	-8.54061
вод	-8.54323
ним	-8.54405
▁подумал	-8.54634
▁одна	-8.5465
▁Пьер	-8.54805
▁дня	-8.54852
8	-8.55042
▁взгляд	-8.55089
3	-8.55184
▁которое	-8.55621
▁сама	-8.55659
▁одной	-8.55782
▁благо	-8.56217
▁ваше	-8.56219
▁пока	-8.56232
при	-8.56236
▁тех	-8.56296
▁мои	-8.56467
[	-8.56861
▁которых	-8.56875
▁жить	-8.57064
▁делать	-8.57439
▁слишком	-8.57738
▁глаз	-8.57871
▁обо	-8.58784
▁мало	-8.58868
▁кор	-8.5887
сп	-8.58902
▁стол	-8.58972
тся	-8.5902
'	-8.59077
▁р	-8.59379
нуть	-8.59392
▁разговор	-8.59472
▁голосом	-8.59704
5	-8.59875
▁заметил	-8.59884
нут	-8.60338
▁Ведь	-8.60391
▁пошел	-8.60513
люб	-8.60532
▁Они	-8.60578
▁Нехлюдов	-8.60851
вали	-8.61018
▁говорила	-8.61061
ъ	-8.61118
▁Левин	-8.6145
щ	-8.62264
▁слышал	-8.62271
сы	-8.62344
▁дверь	-8.62377
су	-8.62601
▁Т	-8.62623
▁Ка	-8.62662
9	-8.62758
▁рад	-8.6291
4	-8.63044
▁действительно	-8.63082
стра	-8.63183
▁этим	-8.63341
▁должно	-8.63388
▁суд	-8.63407
▁пу	-8.6353
▁мол	-8.63624
▁говорю	-8.63854
▁вышел	-8.63986
жу	-8.64173
▁бог	-8.642
▁скоро	-8.64461
▁снова	-8.64486
▁матери	-8.64682
▁которую	-8.64805
▁глядя	-8.64929
ски	-8.6507
▁деньги	-8.65256
од	-8.65421
▁мною	-8.65625
шу	-8.65956
7	-8.66485
дав	-8.66569
▁сме	-8.66626
тель	-8.66727
пра	-8.6689
шка	-8.6709
▁стоял	-8.67259
▁самом	-8.67306
2	-8.67442
▁бед	-8.67525
▁наш	-8.67602
чка	-8.67735
▁генерал	-8.67928
ью	-8.67971
▁завтра	-8.68013
n	-8.68017
▁Э	-8.68214
▁сами	-8.68378
ают	-8.68708
".	-8.68868
▁руками	-8.69019
▁сделал	-8.69276
),	-8.70025
▁почему	-8.70226
▁слово	-8.70247
▁мысль	-8.70356
ием	-8.70415
▁черт	-8.70711
▁сел	-8.70714
ходи	-8.70801
нет	-8.71147
▁жив	-8.71179
▁собой	-8.71181
▁ужасно	-8.71609
йте	-8.71728
▁Из	-8.71737
▁иногда	-8.71875
▁ними	-8.72022
ень	-8.72151
▁чувствовал	-8.72272
r	-8.7231
ню	-8.72342
▁две	-8.72489
▁сын	-8.72508
▁Только	-8.72745
▁сад	-8.72773
ете	-8.72791
▁мысли	-8.7301
▁около	-8.7315
▁Николай	-8.73216
▁конечно	-8.73216
вет	-8.7324
▁какие	-8.73311
6	-8.73346
▁сделать	-8.73433
▁час	-8.73449
под	-8.73455
пер	-8.73689
▁мир	-8.73843
▁место	-8.74094
жен	-8.74122
▁знаете	-8.74175
▁чуть	-8.74274
▁проговорил	-8.7429
▁муж	-8.74291
▁Степан	-8.74363
▁довольно	-8.7437
▁сегодня	-8.74575
С	-8.74683
▁деле	-8.74685
пор	-8.74696
▁самого	-8.75009
кры	-8.75026
▁сидел	-8.75293
▁письмо	-8.754
▁однако	-8.7549
А	-8.75724
▁ме	-8.75831
▁дом	-8.75891
▁двор	-8.75929
▁своем	-8.76175
▁могла	-8.76422
▁котором	-8.76759
i	-8.7745
▁З	-8.77459
нув	-8.77558
▁бел	-8.77631
кая	-8.77644
▁стороны	-8.77835
▁видеть	-8.77982
u	-8.78001
ина	-8.78203
▁солдат	-8.78232
▁право	-8.78249
▁зачем	-8.7825
▁отец	-8.78343
▁смотрел	-8.78441
▁каким	-8.78465
▁прост	-8.78488
▁Анна	-8.78548
▁знаком	-8.78575
▁первый	-8.78632
дет	-8.78869
▁ноги	-8.7892
чат	-8.78922
▁кого	-8.78928
ик	-8.79117
▁времени	-8.79292
енный	-8.79315
▁моего	-8.79385
бра	-8.79403
▁головой	-8.79531
▁мою	-8.79556
рь	-8.79684
▁часто	-8.7981
▁имел	-8.79884
▁разве	-8.79906
▁узнал	-8.79961
▁комнату	-8.79992
▁пар	-8.80116
▁комнате	-8.80146
▁Теперь	-8.80785
▁Ко	-8.80933
ями	-8.80993
▁вечер	-8.81056
шь	-8.81112
зы	-8.81188
▁лишь	-8.81348
▁Андрей	-8.8146
▁вперед	-8.81726
лом	-8.81799
▁тысяч	-8.82111
▁никто	-8.82258
би	-8.82292
раз	-8.82385
▁Наташа	-8.82474
ест	-8.82714
▁Ни	-8.82868
▁след	-8.83018
▁оно	-8.83409
▁люблю	-8.83441
▁сколько	-8.8374
▁ночь	-8.83789
▁прав	-8.83871
▁Петрович	-8.83908
вид	-8.84221
В	-8.84225
▁двух	-8.8429
▁года	-8.84384
▁думаю	-8.84601
лад	-8.8461
ходит	-8.84816
▁знать	-8.85025
▁вами	-8.85055
▁страшно	-8.85506
три	-8.85744
?»	-8.8579
",	-8.85868
▁места	-8.85895
▁женщина	-8.86143
▁какая	-8.86235
▁ло	-8.86277
вшие	-8.86405
▁de	-8.86414
ках	-8.86745
▁других	-8.86762
кон	-8.86995
ских	-8.86997
стве	-8.87008
▁весело	-8.87109
▁ужас	-8.87217
чет	-8.87242
▁любви	-8.87407
▁князя	-8.8764
▁кроме	-8.87643
овать	-8.87692
▁таким	-8.87786
▁отца	-8.87926
▁душе	-8.87963
▁ясно	-8.8812
чик	-8.88249
▁че	-8.88309
▁впрочем	-8.88502
▁такие	-8.8853
▁Под	-8.88539
нем	-8.88573
▁Фома	-8.88743
▁говорили	-8.88826
p	-8.88855
▁любил	-8.88899
▁лице	-8.88913
▁чувство	-8.89056
▁Об	-8.89155
▁равно	-8.89216
илось	-8.89275
▁какое	-8.89396
ывал	-8.89633
▁ба	-8.89689
щу	-8.89742
вая	-8.89918
аль	-8.89943
?..	-8.89967
▁понимаю	-8.90255
▁вчера	-8.90503
ух	-8.90525
▁боль	-8.90542
▁вз	-8.90631
▁Па	-8.90876
▁оста	-8.91
вшего	-8.91018
▁граф	-8.91065
▁странно	-8.91117
▁Де	-8.9113
▁немного	-8.91435
гра	-8.91565
▁домой	-8.91647
ному	-8.91688
on	-8.91763
▁приехал	-8.91781
иль	-8.91932
▁минут	-8.92084
▁друга	-8.92384
чен	-8.92534
ника	-8.926
▁кур	-8.92652
▁говорят	-8.92821
чки	-8.93031
бр	-8.93145
▁год	-8.93252
ству	-8.93259
▁двери	-8.93328
▁собою	-8.93337
▁вовсе	-8.9336
▁несмотря	-8.93418
▁мальчик	-8.93583
▁хотелось	-8.93584
▁Тут	-8.93615
▁бу	-8.93633
ская	-8.93801
▁сильно	-8.93887
▁сер	-8.93888
▁зло	-8.93889
ину	-8.93973
ался	-8.94022
шки	-8.94033
▁пер	-8.94053
лез	-8.94123
▁Ж	-8.94153
▁самое	-8.94178
ман	-8.94268
хи	-8.94289
▁слов	-8.94632
▁той	-8.9465
▁француз	-8.95058
ские	-8.95124
ье	-8.95235
▁дев	-8.95312
▁крикнул	-8.95337
▁сюда	-8.95353
▁бр	-8.95354
▁Кто	-8.95683
▁мо	-8.95879
ница	-8.95885
раж	-8.95897
▁правда	-8.95981
итель	-8.96039
держ	-8.9605
▁шел	-8.96087
▁непременно	-8.96182
▁доме	-8.9619
▁одну	-8.9644
▁каждый	-8.96607
▁виноват	-8.96706
▁тяжело	-8.96733
ват	-8.96815
l	-8.96942
лив	-8.96971
овал	-8.96989
▁пи	-8.97107
алась	-8.97182
▁господин	-8.9728
▁жил	-8.9743
рен	-8.97957
О	-8.98282
▁Ре	-8.98372
▁Ма	-8.98383
жал	-8.98669
пу	-8.98732
ливо	-8.98749
▁подошел	-8.98942
▁понял	-8.99012
▁случае	-8.99113
▁Ч	-8.99163
чно	-8.99296
▁закричал	-8.99462
▁которым	-8.99484
▁видно	-8.99523
▁стали	-8.99649
▁Р	-8.99693
▁хорош	-8.99796
▁цвет	-8.9999
дов	-9.00005
▁мед	-9.00272
▁скажу	-9.00292
бер	-9.00327
дел	-9.00338
▁комнаты	-9.00444
▁шут	-9.00675
лек	-9.00768
▁стоит	-9.00832
ич	-9.00878
овой	-9.00953
щий	-9.01175
▁уверен	-9.01219
кра	-9.01251
▁расс	-9.01297
▁души	-9.01448
▁словно	-9.01521
▁труд	-9.01652
▁другие	-9.01694
▁рукой	-9.01889
▁мере	-9.02238
▁Бог	-9.0232
скую	-9.02398
ятся	-9.02477
▁стала	-9.02527
▁окна	-9.02681
пре	-9.02687
сел	-9.02797
▁Ростов	-9.02856
▁своими	-9.02895
▁Потом	-9.0301
▁знаешь	-9.03167
ек	-9.03229
ною	-9.03281
др	-9.03479
мир	-9.03831
▁идти	-9.0398
▁поднял	-9.04132
ден	-9.04135
аться	-9.04425
тый	-9.04668
▁слушал	-9.04731
▁горе	-9.04748
▁ответил	-9.04768
▁недо	-9.04829
.).	-9.0485
вести	-9.0504
▁месте	-9.05447
▁чрезвычайно	-9.05522
▁образ	-9.05533
▁пять	-9.05556
ший	-9.05614
▁свете	-9.05857
вол	-9.05864
▁зна	-9.05995
▁нею	-9.06081
▁кричал	-9.06084
▁вошел	-9.06123
▁ра	-9.06133
▁само	-9.06168
▁тер	-9.062
зу	-9.06303
▁успел	-9.06389
▁м	-9.06541
ё	-9.06571
▁вижу	-9.06606
дать	-9.06699
▁3	-9.067
▁лицом	-9.06716
▁заговорил	-9.06863
▁встал	-9.07061
▁земле	-9.07122
▁среди	-9.07156
дут	-9.07221
▁всей	-9.07222
▁молод	-9.0734
ивая	-9.0734
ское	-9.07464
▁Л	-9.07693
▁ответ	-9.07743
▁шум	-9.07776
▁такого	-9.07831
вался	-9.08141
ай	-9.08257
▁пришел	-9.08776
кие	-9.08817
▁весел	-9.09066
▁После	-9.09111
▁идет	-9.09159
дар	-9.09159
воз	-9.09213
▁образом	-9.09214
▁особ	-9.09333
▁молодой	-9.09381
▁ша	-9.0945
▁легко	-9.09475
ции	-9.09576
▁прибавил	-9.09612
▁офицер	-9.09615
▁Алеша	-9.10004
▁счастлив	-9.1003
▁товарищ	-9.10054
▁цел	-9.10073
слов	-9.10081
▁верно	-9.10198
▁дерев	-9.10224
▁закон	-9.10336
▁ф	-9.1037
▁сторону	-9.10588
ском	-9.10593
▁ходил	-9.10619
М	-9.1074
▁часов	-9.109
▁нос	-9.10961
нный	-9.10991
▁улыбаясь	-9.11014
ыч	-9.11104
▁Ли	-9.1116
▁моих	-9.1119
шне	-9.11214
И	-9.11335
▁хочет	-9.11372
▁Князь	-9.11477
ге	-9.11623
▁любовь	-9.11741
▁тобой	-9.11766
▁едва	-9.11774
▁интерес	-9.11858
▁остановился	-9.11873
дал	-9.11935
▁улыбкой	-9.11973
▁спокойно	-9.11983
▁прос	-9.12029
рем	-9.1246
▁такая	-9.12526
уж	-9.126
▁дал	-9.12625
оп	-9.1263
c	-9.12894
дя	-9.12909
ваясь	-9.12932
▁Стр	-9.12974
▁жена	-9.12975
▁ла	-9.12984
▁женщин	-9.13031
▁оде	-9.135
▁денег	-9.13779
нос	-9.1404
▁э	-9.14114
нная	-9.14228
▁решительно	-9.14309
▁рублей	-9.14396
▁значит	-9.14492
▁Павел	-9.14593
▁никак	-9.14644
ались	-9.14678
▁самой	-9.14961
▁ча	-9.15057
▁удар	-9.15091
▁мимо	-9.1521
ывая	-9.15251
кнул	-9.15505
▁ста	-9.15508
ях	-9.15557
▁собра	-9.15576
ром	-9.15698
▁доктор	-9.15866
ило	-9.1591
зд	-9.16054
▁I	-9.16435
э	-9.1657
▁тре	-9.16688
▁холод	-9.16693
нька	-9.16769
▁лошадь	-9.16779
тал	-9.16995
▁повер	-9.17007
П	-9.17074
▁Вер	-9.17105
них	-9.17148
вших	-9.17343
нию	-9.17507
щих	-9.17529
▁спросила	-9.17559
▁руках	-9.17566
▁стоя	-9.17567
er	-9.17606
▁наши	-9.17636
▁бога	-9.17738
▁начала	-9.17785
стей	-9.17791
▁смерти	-9.18047
▁Го	-9.18058
▁ро	-9.18123
▁глав	-9.1822
▁очевидно	-9.18231
образ	-9.18248
енные	-9.18312
▁свят	-9.18569
ников	-9.18597
▁приятно	-9.18601
пуст	-9.18823
енной	-9.18897
Т	-9.19048
ским	-9.19093
▁ворот	-9.19171
▁самый	-9.19254
▁вод	-9.19325
▁сил	-9.19342
▁высоко	-9.19404
щик	-9.19449
фе	-9.19462
▁Х	-9.19509
рас	-9.19563
суд	-9.19736
▁изд	-9.19739
пал	-9.1974
▁женщины	-9.19951
▁увидел	-9.2001
чал	-9.20014
цев	-9.20035
ких	-9.20105
▁этому	-9.20306
▁Ле	-9.20323
▁могли	-9.20348
щие	-9.20632
▁таких	-9.20666
▁расп	-9.20754
▁землю	-9.20805
▁глазах	-9.20893
▁полно	-9.2091
▁характер	-9.20914
▁чу	-9.20939
▁своему	-9.20972
▁Мо	-9.21004
ившись	-9.2112
▁воскликнул	-9.21241
▁должны	-9.21241
▁Сам	-9.21319
re	-9.21322
▁другое	-9.21388
▁понять	-9.2143
вшийся	-9.21519
▁одним	-9.21531
▁круг	-9.21551
▁принял	-9.21897
▁посмотрел	-9.21949
вала	-9.21954
▁большой	-9.22118
▁крик	-9.22658
очка	-9.22753
▁глуп	-9.2279
▁выход	-9.22797
К	-9.22832
оро	-9.2296
▁будут	-9.22975
!"	-9.22975
▁сторон	-9.23009
▁господа	-9.23099
▁добро	-9.23136
▁кол	-9.23173
кла	-9.23197
▁зап	-9.23199
▁произнес	-9.23227
кор	-9.23365
бор	-9.23388
▁лож	-9.23434
щего	-9.23525
ял	-9.23544
▁Наконец	-9.23559
▁дух	-9.23573
ист	-9.23585
▁слезы	-9.23729
няя	-9.23763
ваться	-9.23867
▁десять	-9.24119
▁лег	-9.24253
▁барин	-9.24383
рю	-9.24413
изм	-9.24477
▁думать	-9.24727
фи	-9.24876
▁роман	-9.24928
вшая	-9.25019
чер	-9.25038
▁грудь	-9.25066
&#233;	-9.25134
▁важно	-9.25173
ушка	-9.25286
▁Лиза	-9.25326
▁кос	-9.25383
▁любит	-9.25425
▁чувства	-9.25511
тки	-9.25575
▁Е	-9.25688
▁встретил	-9.25706
▁голова	-9.25709
фр	-9.25871
▁крайней	-9.26021
▁Впрочем	-9.26161
▁Его	-9.26255
▁другого	-9.26255
▁понимал	-9.26304
▁небо	-9.26479
▁Федорович	-9.26511
▁чай	-9.26529
бли	-9.2662
▁начинал	-9.26639
стре	-9.26718
▁почувствовал	-9.26735
▁весьма	-9.26751
▁ног	-9.26929
▁пьян	-9.2697
▁крест	-9.26971
шей	-9.27024
нят	-9.27068
▁хотела	-9.27194
▁губ	-9.27282
v	-9.2733
▁рук	-9.27335
▁голове	-9.27359
▁сто	-9.27503
▁Пол	-9.27757
▁минуты	-9.27771
▁ехать	-9.27778
▁видимо	-9.27812
▁платье	-9.27881
▁ошиб	-9.27922
лей	-9.27971
▁обе	-9.2799
ву	-9.2803
шая	-9.28085
▁душу	-9.28124
▁жал	-9.28378
енных	-9.28402
▁тр	-9.28437
вой	-9.28463
▁принес	-9.28492
▁стыд	-9.28517
▁бросил	-9.28564
▁собственно	-9.2895
▁m	-9.29003
▁Зачем	-9.29103
круж	-9.29182
ять	-9.2922
▁раст	-9.29236
▁Н	-9.29262
▁кра	-9.29296
▁хотите	-9.29304
▁бал	-9.29367
▁Алексей	-9.29422
щей	-9.29479
▁d	-9.29542
▁сед	-9.29593
франц	-9.29665
▁дед	-9.29675
воль	-9.29739
▁s	-9.29822
▁известно	-9.2996
жил	-9.30004
▁вскричал	-9.30135
ально	-9.30167
вшей	-9.30312
▁Ба	-9.30394
in	-9.30571
пле	-9.30574
стер	-9.30617
▁красив	-9.30629
▁туда	-9.30629
▁силы	-9.30665
▁семь	-9.30785
▁Ему	-9.30797
зов	-9.3081
*	-9.30865
дела	-9.30903
▁говоря	-9.30906
▁громко	-9.30944
зе	-9.31102
кам	-9.31115
рт	-9.31323
ственно	-9.31367
▁главное	-9.31386
▁рот	-9.31503
▁стран	-9.31619
▁показалось	-9.31838
▁обраща	-9.32028
▁часа	-9.3204
▁угол	-9.32088
▁Павлович	-9.32184
▁невольно	-9.32208
вались	-9.32261
▁Мар	-9.32271
нулся	-9.32303
▁волн	-9.32433
ается	-9.3251
гор	-9.32587
▁забыл	-9.3264
▁слав	-9.32723
вый	-9.32791
▁вес	-9.32811
▁ще	-9.32944
▁медленно	-9.33045
▁груди	-9.33136
h	-9.33262
оз	-9.33281
ники	-9.33284
▁всеми	-9.33293
теля	-9.33322
▁муч	-9.33461
▁схватил	-9.33655
итесь	-9.33674
▁подле	-9.33768
▁далеко	-9.33799
▁Раз	-9.33819
нные	-9.33957
▁читал	-9.34008
▁вокруг	-9.34033
▁повторил	-9.34046
▁серьезно	-9.34048
▁горяч	-9.34246
▁детей	-9.34277
▁Си	-9.34383
▁c	-9.3446
▁Разве	-9.34481
см	-9.34496
тр	-9.34532
▁p	-9.34591
▁Ивановна	-9.34671
▁спас	-9.34689
▁самым	-9.34833
▁её	-9.34903
▁чему	-9.35024
▁велик	-9.35119
▁хочешь	-9.35149
▁нашего	-9.35157
▁куп	-9.35204
▁вспомнил	-9.35402
▁чист	-9.35465
ало	-9.35513
▁строго	-9.35572
ток	-9.35623
▁слаб	-9.3564
▁занима	-9.35784
ими	-9.35816
▁рядом	-9.35906
▁лес	-9.35988
▁смотреть	-9.36126
▁руб	-9.36197
нных	-9.362
ско	-9.3633
рус	-9.36429
▁Ду	-9.36472
▁трудно	-9.36485
▁одном	-9.36489
is	-9.36563
▁черн	-9.36586
▁утра	-9.36599
стой	-9.36609
▁Ц	-9.36846
шим	-9.36973
▁ле	-9.37005
▁бег	-9.37005
▁хозяин	-9.37049
▁сосед	-9.37049
▁спор	-9.37076
▁вероятно	-9.37175
щим	-9.37292
▁видал	-9.37374
▁собира	-9.3738
цов	-9.37397
▁напротив	-9.37464
▁причин	-9.37499
▁какую	-9.37541
▁кар	-9.37545
▁сквозь	-9.3756
▁дороге	-9.37562
вещ	-9.37686
▁нами	-9.37778
▁увидал	-9.37825
▁помню	-9.3788
ог	-9.38228
▁столько	-9.38268
▁ха	-9.38269
▁a	-9.38414
▁нарочно	-9.38466
вес	-9.38473
▁Александрович	-9.38729
▁сына	-9.38793
▁слез	-9.38892
ению	-9.39054
зор	-9.39186
▁Ла	-9.39221
▁близ	-9.39365
▁обман	-9.39494
▁четыре	-9.39549
след	-9.39589
ически	-9.39603
▁невозможно	-9.39637
▁Га	-9.39649
▁ибо	-9.39734
▁исчез	-9.39768
d	-9.39774
вен	-9.39858
▁рассказывал	-9.39868
▁прекрасно	-9.39899
▁друж	-9.39907
ления	-9.39954
ением	-9.40003
▁ряд	-9.40054
чем	-9.40121
▁отдал	-9.40178
▁Может	-9.40301
▁Уж	-9.40342
ющим	-9.40358
▁нечего	-9.40379
▁дам	-9.40568
▁мечта	-9.40599
▁крепко	-9.40665
▁страх	-9.40676
чку	-9.40737
▁положение	-9.41186
▁имени	-9.41224
▁язык	-9.41319
▁разумеется	-9.41357
▁лошади	-9.41462
ницы	-9.41497
▁зе	-9.41614
▁виде	-9.41663
▁стен	-9.41712
▁нашей	-9.41715
▁лежал	-9.41829
▁гости	-9.41861
▁отвечала	-9.41862
йдет	-9.41994
▁красн	-9.4205
▁просил	-9.42078
▁Те	-9.42131
▁дни	-9.42196
▁умер	-9.42282
▁Бу	-9.4235
айте	-9.42465
аю	-9.42527
▁губы	-9.42535
▁дорогу	-9.42566
ьте	-9.42644
▁сначала	-9.42835
▁звук	-9.42905
▁словом	-9.43024
▁му	-9.43122
нувшись	-9.43152
▁истин	-9.43176
реш	-9.43239
▁рассказал	-9.43275
▁скорее	-9.43378
▁случилось	-9.43392
▁Где	-9.4342
▁дурно	-9.43484
▁дороги	-9.43519
▁пожал	-9.43595
▁Кор	-9.43631
▁ежели	-9.43651
▁спрашивал	-9.43895
▁Бо	-9.43914
▁двадцать	-9.43924
▁устал	-9.4396
...»	-9.44021
▁Ничего	-9.44068
▁приходил	-9.44071
сты	-9.44114
▁коли	-9.44116
ьев	-9.44155
рез	-9.44193
▁Тогда	-9.44198
▁моим	-9.44278
▁хо	-9.44282
▁знала	-9.44316
▁Ро	-9.44343
▁вино	-9.4443
▁вообще	-9.44473
▁ожидал	-9.44476
▁дальше	-9.44508
▁свеж	-9.44544
▁раб	-9.44616
▁душа	-9.44647
▁лу	-9.44662
ющих	-9.44775
te	-9.44802
▁глядел	-9.44918
▁считал	-9.44975
▁Ар	-9.4498
▁обратился	-9.44995
▁восторг	-9.45026
▁улице	-9.45045
▁дать	-9.45059
▁велел	-9.4511
▁какого	-9.45226
▁месяц	-9.45276
▁вышла	-9.45313
▁сердца	-9.45349
кал	-9.45381
▁враг	-9.45395
Б	-9.45417
▁здоров	-9.4546
шего	-9.45539
▁солнце	-9.4558
es	-9.45606
▁проч	-9.45665
▁выражение	-9.45773
▁темно	-9.45849
▁цен	-9.45899
нять	-9.45934
двиг	-9.45974
▁Пе	-9.46027
▁Надо	-9.46085
▁луч	-9.46121
▁Всё	-9.4614
▁пуст	-9.46166
▁глубоко	-9.46208
рев	-9.46367
▁наших	-9.46465
▁другом	-9.46604
▁Еще	-9.4661
▁упал	-9.46643
▁пост	-9.46771
казал	-9.4679
▁окно	-9.46827
▁го	-9.46842
▁стра	-9.46928
▁речь	-9.46955
▁ждал	-9.47022
▁больно	-9.47023
▁имеет	-9.47033
▁почт	-9.47053
енно	-9.47077
▁поднима	-9.47144
▁оба	-9.47146
щая	-9.4729
▁реши	-9.47302
▁Та	-9.47362
▁мужик	-9.47446
▁век	-9.47521
▁внимание	-9.47548
▁одни	-9.47673
▁вос	-9.47685
▁иначе	-9.47713
b	-9.47821
▁совет	-9.47823
▁другим	-9.47861
▁пожалуй	-9.47944
▁вполне	-9.47975
▁делал	-9.48052
▁нрав	-9.48182
шен	-9.48225
езд	-9.48226
етесь	-9.48267
ющие	-9.48303
▁убежден	-9.48403
▁пора	-9.48404
▁Федор	-9.48415
}	-9.48547
▁снег	-9.48554
▁Стар	-9.48685
▁хуже	-9.4869
▁например	-9.48691
▁стул	-9.48697
оль	-9.48808
▁другую	-9.48857
▁дочь	-9.48911
▁голуб	-9.48965
▁Се	-9.49053
▁выше	-9.49126
▁писал	-9.49204
▁бабушка	-9.49275
нным	-9.4929
▁никого	-9.49324
▁ума	-9.49359
▁Вместо	-9.49411
▁вместо	-9.49555
▁любить	-9.49566
g	-9.49571
▁желал	-9.49638
é	-9.497
▁должна	-9.497
▁поехал	-9.49707
▁головы	-9.49748
▁обыкновенно	-9.49905
▁побед	-9.4991
▁решил	-9.4994
ания	-9.49965
▁также	-9.50119
ставлял	-9.50141
цу	-9.50225
▁воздух	-9.50248
▁II	-9.50273
пел	-9.50362
▁взглянул	-9.50614
▁города	-9.50645
▁положил	-9.50722
▁думала	-9.50911
▁находил	-9.5093
▁видом	-9.50945
▁дней	-9.51109
▁утром	-9.51113
▁неприятно	-9.51161
вели	-9.51236
енного	-9.51245
▁вечером	-9.51255
ович	-9.51268
▁стола	-9.51348
[2	-9.51443
ешься	-9.51462
▁бывает	-9.51501
▁Однако	-9.51632
▁существо	-9.51648
▁всякий	-9.51676
нья	-9.51695
▁могло	-9.51741
▁бывало	-9.51755
кую	-9.51772
▁чувств	-9.51866
▁батюшка	-9.519
▁углу	-9.5191
▁измен	-9.51916
бле	-9.51923
▁живо	-9.52026
ошел	-9.52097
ция	-9.52179
▁извест	-9.5219
▁{	-9.52215
▁Москве	-9.52345
Я	-9.52355
▁ваш	-9.52515
▁смех	-9.52566
▁форм	-9.52667
нула	-9.52712
▁кому	-9.52804
▁миг	-9.52857
▁сих	-9.52866
▁плат	-9.52907
▁получил	-9.52908
▁баб	-9.52908
▁вечера	-9.52909
▁неожиданно	-9.52957
▁молчал	-9.52967
▁...	-9.52977
тен	-9.53015
▁всему	-9.53101
▁дым	-9.53157
глас	-9.53158
▁помог	-9.53317
▁милый	-9.53325
лог	-9.53374
▁таком	-9.53385
лин	-9.53424
▁Кутузов	-9.53544
▁узнать	-9.53546
рел	-9.53583
помни	-9.53608
енная	-9.53673
▁перемен	-9.53698
▁обеда	-9.53715
▁занят	-9.53793
▁f	-9.53965
▁отчего	-9.54014
ует	-9.54272
▁грязн	-9.543
▁Один	-9.54349
▁кругом	-9.54364
▁живет	-9.54395
его	-9.5444
▁оп	-9.54477
▁представля	-9.54498
иц	-9.54564
▁Кити	-9.54611
▁пал	-9.54744
лый	-9.54773
▁Иваныч	-9.5497
шие	-9.55
▁ч	-9.5515
▁твердо	-9.55215
овна	-9.55297
▁имя	-9.55342
▁прошло	-9.55371
▁твои	-9.55376
▁пят	-9.55476
ивал	-9.55488
▁выража	-9.55634
▁дети	-9.55657
▁взять	-9.5581
▁волосы	-9.55834
▁Ку	-9.55871
▁игра	-9.55877
▁которому	-9.55897
ницу	-9.56014
▁уз	-9.56061
град	-9.56101
▁пойду	-9.56313
чин	-9.5635
▁ушел	-9.56459
▁бар	-9.56518
вшим	-9.56537
▁пусть	-9.56564
▁бур	-9.56655
▁холодно	-9.5671
сте	-9.56793
▁мил	-9.5691
▁земли	-9.57074
▁утеш	-9.57089
▁спать	-9.57094
▁картин	-9.57102
шку	-9.57194
Д	-9.57198
тели	-9.57203
сов	-9.57301
▁говорите	-9.57304
▁свеч	-9.57393
f	-9.57417
аясь	-9.57533
▁поле	-9.57654
▁дурак	-9.57751
▁столь	-9.5776
гал	-9.57765
▁городе	-9.57769
▁человеку	-9.57777
▁наше	-9.57794
▁строка	-9.57799
нное	-9.57822
▁стояла	-9.57853
▁держал	-9.579
▁старый	-9.57922
скому	-9.57989
рат	-9.58067
вил	-9.58091
▁опустил	-9.58105
ивает	-9.58105
▁книг	-9.58136
енным	-9.58148
▁Ильич	-9.58171
▁мужа	-9.58239
енное	-9.5827
▁ночи	-9.58301
▁лежа	-9.58315
▁России	-9.58329
▁бесс	-9.58348
▁встреч	-9.5846
▁спал	-9.5859
▁старика	-9.58601
нка	-9.58611
▁подо	-9.58701
▁волос	-9.58709
▁Чичиков	-9.58963
▁людям	-9.58974
▁грех	-9.58991
▁Петербург	-9.59009
▁никакого	-9.59063
▁взглядом	-9.59076
▁забот	-9.59104
▁широко	-9.59134
▁теле	-9.59277
▁Аркадий	-9.59282
▁конце	-9.59536
пут	-9.59568
▁самые	-9.5957
▁кабинет	-9.59602
▁мертв	-9.59723
▁Ан	-9.59807
▁могут	-9.60009
чный	-9.6004
Р	-9.60132
ющий	-9.60187
▁человеком	-9.60235
▁нож	-9.6024
▁Чего	-9.60407
▁смерть	-9.60431
коль	-9.60527
▁Александр	-9.60573
ьян	-9.60633
▁речи	-9.60688
▁желание	-9.60911
▁тон	-9.60973
▁низ	-9.61022
▁Антон	-9.61069
▁самому	-9.61082
▁нынче	-9.61216
нием	-9.61245
кло	-9.61253
▁ногами	-9.61368
▁Для	-9.61378
▁жен	-9.61408
▁стояли	-9.61413
▁смотрела	-9.61416
рад	-9.61443
рог	-9.61588
город	-9.61679
▁Наполеон	-9.61741
▁вашего	-9.61743
▁мор	-9.61753
фор	-9.61861
▁ход	-9.61871
▁голоса	-9.61874
▁жалко	-9.61949
▁созна	-9.61976
▁отдел	-9.61977
▁обед	-9.62019
ена	-9.62098
анный	-9.62123
▁вед	-9.6225
▁держа	-9.62284
ших	-9.62325
▁чиновник	-9.62529
она	-9.62778
▁хлеб	-9.62823
▁такую	-9.62907
▁имею	-9.62949
дает	-9.6299
▁Хо	-9.62996
тур	-9.63068
вшиеся	-9.63237
▁улыба	-9.63385
▁дядя	-9.63521
Н	-9.63545
▁согласи	-9.63555
▁дур	-9.63566
▁радости	-9.63582
ra	-9.63601
▁сидела	-9.63616
ou	-9.6365
▁лошадей	-9.63717
По	-9.63741
енную	-9.63744
▁рев	-9.63812
▁первого	-9.63855
ушки	-9.63878
▁Вдруг	-9.63911
Е	-9.63916
▁побежал	-9.63968
▁кончил	-9.63998
овых	-9.64002
>	-9.64021
▁Василий	-9.64021
▁оттого	-9.64058
▁желая	-9.64068
▁уме	-9.64087
▁бесед	-9.64134
▁дра	-9.64134
сил	-9.64284
▁видела	-9.64302
чувств	-9.64373
▁4	-9.64384
телей	-9.64457
▁забыв	-9.64542
▁роз	-9.64694
▁Степанович	-9.64711
▁девушка	-9.64714
▁погиб	-9.64738
рач	-9.64742
гро	-9.64816
▁ради	-9.64823
▁людьми	-9.64862
▁тело	-9.64891
▁Гор	-9.64949
▁последний	-9.65031
▁поход	-9.65046
▁берег	-9.65069
ины	-9.65117
двинул	-9.6515
▁бросился	-9.6517
▁Гу	-9.65226
▁la	-9.65247
мор	-9.65284
▁чисто	-9.65319
▁зад	-9.6534
▁плеч	-9.65384
ено	-9.65399
▁самых	-9.65517
▁Голядкин	-9.65539
▁всякого	-9.65723
вшую	-9.65762
бил	-9.6578
▁вел	-9.6581
кова	-9.65853
▁трех	-9.65921
▁страш	-9.66037
▁обращаясь	-9.66122
очки	-9.66143
очку	-9.66197
▁вслед	-9.66198
▁радостно	-9.66221
▁диван	-9.66369
▁ком	-9.66379
▁письма	-9.66393
▁учен	-9.66437
▁гнев	-9.66446
▁прошел	-9.66472
▁желт	-9.66586
шкой	-9.66633
▁пот	-9.66688
ющего	-9.66697
▁l	-9.66798
дер	-9.6694
езжал	-9.66982
▁разум	-9.66993
▁привык	-9.67091
▁вашей	-9.67106
▁гра	-9.67171
▁обид	-9.67201
▁предмет	-9.67264
▁будем	-9.67298
пр	-9.67309
▁горд	-9.67359
чок	-9.6736
▁Пугачев	-9.67426
▁фа	-9.67483
гре	-9.67578
вание	-9.67587
▁вскочил	-9.67599
▁мест	-9.67599
▁удивля	-9.676
нский	-9.67683
▁хват	-9.67776
en	-9.67785
вши	-9.67952
▁случай	-9.68068
чным	-9.68246
▁серд	-9.68279
▁сидит	-9.68297
▁Там	-9.68347
▁нашел	-9.68381
▁степени	-9.68382
▁тра	-9.68542
йтесь	-9.68556
▁зная	-9.68595
▁пошла	-9.68616
ложить	-9.68661
▁оставил	-9.68684
тые	-9.68691
нного	-9.68748
ица	-9.68946
▁рассказ	-9.68958
▁ходить	-9.68995
▁Митя	-9.68998
▁мя	-9.69087
▁гораздо	-9.69173
▁хочется	-9.69203
▁богат	-9.69228
▁словами	-9.69296
▁правду	-9.69313
▁встреча	-9.69337
▁ди	-9.69403
ика	-9.69452
▁брата	-9.69485
▁стать	-9.69515
▁Очень	-9.69526
▁любим	-9.69527
▁иметь	-9.69538
▁добр	-9.69559
▁возьми	-9.69704
▁шаг	-9.69704
▁вновь	-9.69712
шись	-9.69721
▁пожалуйста	-9.69759
▁целый	-9.69856
ходят	-9.69871
▁сразу	-9.69896
▁моем	-9.69968
▁слушать	-9.70036
▁уехал	-9.70063
▁убил	-9.70171
▁Рим	-9.70189
вшихся	-9.70205
говорил	-9.70288
аем	-9.70289
▁план	-9.70355
▁запах	-9.70412
дали	-9.70464
▁бок	-9.70497
▁боже	-9.70515
▁щек	-9.7061
▁Мил	-9.70668
▁трав	-9.70751
▁вход	-9.70772
▁крестьян	-9.70963
▁Был	-9.71058
ывать	-9.7108
ством	-9.71084
▁ночью	-9.71149
▁Хорошо	-9.71166
▁пут	-9.71202
▁18	-9.71311
ставить	-9.7149
▁броса	-9.71502
▁гре	-9.71598
▁удивлен	-9.71669
▁превосходитель	-9.71671
кинул	-9.7168
▁живот	-9.71702
чные	-9.71713
▁верх	-9.71939
▁руке	-9.72001
▁стыдно	-9.72095
вания	-9.7215
▁потеря	-9.72179
▁двига	-9.7218
▁мел	-9.72203
▁читать	-9.72215
шему	-9.72239
жать	-9.72244
бит	-9.72272
▁карман	-9.72286
ушке	-9.72476
▁плот	-9.72539
тельный	-9.72572
▁став	-9.72623
▁ль	-9.72666
▁поклон	-9.72717
▁бумаг	-9.72729
▁Максим	-9.72761
▁объявил	-9.72774
▁креп	-9.72774
▁сидя	-9.72783
▁Аркадьич	-9.72943
вшее	-9.72944
▁et	-9.72952
▁фон	-9.73093
▁n	-9.73122
▁счастье	-9.73127
▁Конечно	-9.7331
▁ду	-9.73358
▁5	-9.73388
▁Ей	-9.73446
▁вещи	-9.73466
▁Почему	-9.73495
▁грустно	-9.73569
▁зл	-9.73604
рд	-9.73618
▁газет	-9.73678
▁осторожно	-9.73688
▁остался	-9.73691
▁сорок	-9.73773
▁Татьяна	-9.73804
▁кровь	-9.74003
▁ваши	-9.74013
▁ею	-9.74019
ание	-9.74022
▁говори	-9.74058
вшегося	-9.74114
▁тысячи	-9.74121
▁уважа	-9.74147
▁мгновение	-9.74233
▁постели	-9.74269
▁зубы	-9.7442
▁прошу	-9.74424
▁вон	-9.7447
▁лично	-9.74495
нную	-9.74571
▁Че	-9.74582
▁другу	-9.74691
держал	-9.74723
▁Ра	-9.74773
▁Павловна	-9.7479
▁68	-9.74806
▁мужчин	-9.7484
▁моему	-9.74903
▁одному	-9.75005
▁смешно	-9.75034
▁философ	-9.75164
▁тяжел	-9.75216
ывает	-9.75224
▁менее	-9.7526
▁будешь	-9.75374
▁Яков	-9.75384
▁каз	-9.75453
Да	-9.75538
леп	-9.75699
▁маленький	-9.75732
учил	-9.75766
рей	-9.75803
▁мост	-9.75808
▁открыл	-9.75817
▁подоб	-9.75823
▁давеча	-9.75916
▁Мать	-9.75961
▁ласково	-9.76025
▁рез	-9.76039
▁зави	-9.76059
▁воды	-9.7612
▁ударил	-9.76241
вается	-9.76242
▁дворе	-9.76283
кажу	-9.76287
▁крыш	-9.76337
▁обрат	-9.76368
▁нежно	-9.76428
▁удал	-9.76435
▁вор	-9.76501
▁стараясь	-9.76539
плет	-9.76574
▁испуга	-9.76647
▁работа	-9.76682
▁длин	-9.7673
▁улыбнулся	-9.76862
▁проговорила	-9.769
▁руч	-9.76904
me	-9.76959
▁книги	-9.77029
▁лицу	-9.77058
▁[	-9.77169
тка	-9.77236
▁движения	-9.77243
▁возразил	-9.77244
▁настоя	-9.7728
тра	-9.77294
▁красно	-9.7768
▁надежд	-9.77689
дра	-9.77717
?"	-9.77857
▁лов	-9.77875
▁Варвара	-9.7801
▁меньше	-9.78011
▁вниз	-9.78028
▁пить	-9.78098
▁Пьера	-9.78117
▁скажет	-9.78139
здоров	-9.78229
▁дав	-9.7826
пир	-9.78289
▁Эта	-9.78334
▁убеди	-9.78357
▁неподвижно	-9.78413
▁необыкновенно	-9.78422
▁пад	-9.78431
▁близко	-9.78436
▁плохо	-9.78491
▁охот	-9.78502
▁наклон	-9.78546
▁гром	-9.7856
▁гул	-9.7856
нял	-9.7859
нки	-9.78646
▁затем	-9.78735
▁христиан	-9.78783
енький	-9.7885
▁пес	-9.78881
зо	-9.7893
▁церкви	-9.79093
▁смотрели	-9.79099
▁кап	-9.79113
▁Петербурге	-9.79116
▁Версилов	-9.79172
▁улицу	-9.79247
▁дел	-9.79264
▁называл	-9.79322
▁слезами	-9.79331
▁остр	-9.79502
▁княжна	-9.79562
▁поспешно	-9.79563
▁звон	-9.7957
▁долг	-9.796
▁чуд	-9.79722
нок	-9.79754
▁покраснел	-9.79758
▁последнее	-9.79759
▁старался	-9.79836
влечен	-9.80065
▁сход	-9.80078
ине	-9.80125
▁часы	-9.80144
▁Вронский	-9.8015
▁звезд	-9.8015
▁Меня	-9.80156
тая	-9.80158
▁обществе	-9.80159
ющее	-9.80357
▁стакан	-9.80367
▁Неужели	-9.80427
▁думаете	-9.80478
▁своею	-9.80535
ющей	-9.80537
–1	-9.80613
▁графа	-9.80624
рет	-9.80688
▁поцеловал	-9.80742
▁птиц	-9.80774
▁замуж	-9.8078
▁нужны	-9.80786
▁каких	-9.80831
остью	-9.80833
▁пришла	-9.80923
▁мал	-9.80927
▁угодно	-9.8094
▁написал	-9.80979
▁велико	-9.81088
ицы	-9.81098
▁слабо	-9.81117
▁повел	-9.81146
▁Через	-9.81147
чей	-9.81175
or	-9.81185
▁надобно	-9.81202
▁шар	-9.81279
est	-9.81283
▁золото	-9.81347
▁молитв	-9.81348
▁честь	-9.81361
овым	-9.81421
▁вопросы	-9.81436
▁твое	-9.81476
▁образован	-9.81596
▁упрек	-9.81638
▁вздор	-9.81681
чать	-9.8176
▁постоянно	-9.81818
▁вздохнул	-9.81835
▁принять	-9.81887
Г	-9.81895
держать	-9.81918
▁Базаров	-9.81936
▁богу	-9.8207
▁Было	-9.82139
▁приказ	-9.82151
▁Друг	-9.82154
▁черно	-9.82173
руга	-9.82195
▁Пи	-9.8225
▁пошли	-9.82254
зван	-9.82291
рош	-9.82298
18	-9.82354
▁голод	-9.82372
▁окон	-9.8241
▁душ	-9.8245
лег	-9.82601
▁Эх	-9.82656
▁Пере	-9.82702
▁князю	-9.8274
▁успокои	-9.82762
▁делу	-9.82782
▁дому	-9.8286
▁смущен	-9.82944
▁ехал	-9.8295
▁боюсь	-9.83022
дин	-9.83041
▁Егор	-9.831
▁положении	-9.8316
▁продолжала	-9.83208
▁дорож	-9.83249
▁гроз	-9.83278
▁раньше	-9.83348
нского	-9.83358
▁Куда	-9.83469
▁расста	-9.83515
▁тихонько	-9.83551
▁внимания	-9.83551
▁знали	-9.83576
▁папа	-9.83608
Что	-9.83713
▁ближе	-9.83756
фа	-9.83937
▁Литвинов	-9.83958
▁перебил	-9.83995
▁конца	-9.83998
мина	-9.84006
▁государь	-9.84034
чиво	-9.84136
исто	-9.84142
▁влюблен	-9.84187
▁различ	-9.84242
▁гад	-9.84307
▁никому	-9.84376
▁пря	-9.84418
▁смысл	-9.84569
▁Санин	-9.8458
▁давал	-9.84611
▁скучно	-9.84633
▁утро	-9.84638
▁делает	-9.84674
слав	-9.84707
▁просить	-9.84778
▁однажды	-9.84779
▁Пер	-9.84866
▁выходил	-9.85049
▁видя	-9.85065
терпел	-9.85077
▁народа	-9.85101
▁можете	-9.85114
▁плач	-9.85117
▁Денисов	-9.85192
▁промолвил	-9.85192
▁везде	-9.85215
▁Старик	-9.85265
опыт	-9.85271
▁ран	-9.85351
нюю	-9.85494
▁тайн	-9.85553
З	-9.85584
▁откуда	-9.85613
как	-9.85622
▁решился	-9.85624
▁редко	-9.85632
▁пан	-9.85642
▁Ивана	-9.85718
▁истории	-9.85814
▁тверд	-9.85817
▁сухо	-9.85962
▁рыб	-9.85994
У	-9.86002
рал	-9.86025
▁мастер	-9.86059
ишься	-9.86059
рок	-9.86066
▁вскрикнул	-9.86099
▁насчет	-9.86197
▁способ	-9.86262
▁попа	-9.86327
▁состоянии	-9.86458
▁внимательно	-9.8665
мах	-9.86667
шек	-9.86697
▁глупо	-9.8676
Не	-9.86786
▁сердито	-9.86796
▁села	-9.86804
кин	-9.86824
▁духа	-9.86834
▁поздно	-9.86862
енье	-9.86867
▁le	-9.86869
▁позво	-9.86992
▁наверно	-9.87022
▁прекрасны	-9.87071
зя	-9.87075
▁Же	-9.87111
▁рост	-9.87174
▁столу	-9.87196
▁que	-9.87248
▁Отчего	-9.87298
▁умел	-9.8731
▁часть	-9.87445
▁относи	-9.87452
▁возврат	-9.87493
▁шею	-9.87514
хал	-9.87532
▁останавлива	-9.87654
▁сон	-9.87685
▁сне	-9.877
▁император	-9.87819
▁рука	-9.87841
▁раза	-9.87853
▁слегка	-9.87919
хожу	-9.87951
▁объя	-9.87989
▁наук	-9.88
граф	-9.88059
рин	-9.88061
▁капитан	-9.88084
▁играл	-9.88105
▁графин	-9.88129
▁жертв	-9.88147
стал	-9.88284
▁блестя	-9.8834
Мурат	-9.88346
▁мира	-9.88352
▁Ев	-9.88456
▁видите	-9.885
разум	-9.88533
▁девиц	-9.88545
▁кем	-9.88678
говорить	-9.88696
▁даль	-9.88745
▁быстр	-9.88862
▁одет	-9.88979
▁Ти	-9.89031
▁бежал	-9.89046
▁спросить	-9.89091
▁войска	-9.89158
▁1	-9.892
▁любила	-9.89209
▁Боже	-9.89272
овые	-9.89297
▁дрожа	-9.89378
▁чи	-9.89395
кс	-9.89425
▁Оста	-9.89481
▁жены	-9.89511
▁цеп	-9.89671
▁Андреевна	-9.89697
ностью	-9.89766
▁новое	-9.89886
▁ветер	-9.89986
▁существ	-9.90026
▁гл	-9.90164
чил	-9.90192
▁ангел	-9.90197
▁древ	-9.90212
▁ребенка	-9.90283
▁Здесь	-9.90283
▁проклят	-9.90296
▁неловко	-9.90301
пло	-9.90306
▁достал	-9.90381
пит	-9.90409
▁месяца	-9.90484
V	-9.90489
▁похож	-9.9049
▁повторя	-9.90494
▁пристально	-9.90501
▁играть	-9.90516
▁тя	-9.90543
▁поп	-9.90616
▁наша	-9.90632
tre	-9.90648
водил	-9.90672
▁Москву	-9.90719
▁Андрея	-9.90722
▁права	-9.90723
▁шла	-9.90723
▁большие	-9.9074
видим	-9.90745
▁вечно	-9.90852
▁колени	-9.90872
кажет	-9.90879
▁запер	-9.90913
▁колен	-9.90954
шедши	-9.90955
вшему	-9.91129
▁подхватил	-9.91157
▁Лицо	-9.91173
▁Кон	-9.91186
▁другая	-9.91222
▁труб	-9.91287
▁Какой	-9.91336
▁Хаджи	-9.91377
пят	-9.91445
▁задумчиво	-9.91448
▁помнит	-9.91475
▁толк	-9.91637
▁просьб	-9.9166
it	-9.91681
▁видишь	-9.91687
▁дама	-9.91716
▁Между	-9.91818
▁театр	-9.91829
▁праздник	-9.91871
▁огонь	-9.91876
▁смотрит	-9.91882
▁впереди	-9.91924
сан	-9.92124
▁туман	-9.92135
▁Этот	-9.92181
▁шесть	-9.9219
жет	-9.92275
le	-9.92487
ушку	-9.92521
▁худо	-9.92585
вление	-9.92663
▁лав	-9.92695
▁ногу	-9.92702
▁впечатление	-9.92706
▁полез	-9.92731
лат	-9.92733
▁бор	-9.92922
▁последние	-9.9293
▁новые	-9.92954
▁состав	-9.92971
▁твой	-9.92981
йдя	-9.93006
▁роб	-9.93087
▁ma	-9.93089
треб	-9.9314
▁достоинств	-9.93153
▁жили	-9.93176
▁убит	-9.93201
▁Даже	-9.93248
▁всяком	-9.93325
▁vous	-9.93452
▁6	-9.93464
▁части	-9.93529
давать	-9.93562
▁послал	-9.93584
▁искренно	-9.9361
▁Александровна	-9.93612
▁новый	-9.93672
▁огне	-9.9379
▁обещал	-9.93843
рис	-9.93864
▁выстрел	-9.9387
бегал	-9.93896
▁скажи	-9.93966
едем	-9.94146
▁явля	-9.94265
▁возвраща	-9.94286
▁сила	-9.94368
нимая	-9.94412
ником	-9.94463
▁Трофимович	-9.94511
▁сзади	-9.94512
▁следует	-9.9453
▁кое	-9.94602
вай	-9.94608
▁др	-9.94615
▁жест	-9.94684
нице	-9.94712
льные	-9.94733
▁рассказывать	-9.94765
▁b	-9.94804
пустить	-9.94855
▁школ	-9.94886
▁жаль	-9.94894
,--	-9.94979
▁отлич	-9.94999
анье	-9.95015
▁поезд	-9.95051
▁протянул	-9.95075
▁разных	-9.95081
ступить	-9.9517
йся	-9.95178
▁лист	-9.95191
▁казак	-9.95278
▁придет	-9.95278
телем	-9.95329
плю	-9.95435
▁Бер	-9.95475
▁господина	-9.95502
▁четверт	-9.9558
▁Кар	-9.95649
ложив	-9.95694
▁самую	-9.95805
▁немец	-9.95825
овали	-9.95847
’	-9.95877
▁позвольте	-9.95877
▁указывая	-9.95886
▁вверх	-9.95916
▁столом	-9.96044
▁книгу	-9.96048
▁помещик	-9.96108
▁третий	-9.96109
▁назначен	-9.96138
▁столе	-9.96229
жит	-9.96321
▁честно	-9.96385
▁дрож	-9.96514
▁войск	-9.96521
▁пример	-9.96526
▁узнав	-9.96577
кою	-9.96577
▁мет	-9.96664
▁коп	-9.96701
▁мер	-9.96783
▁Вельчанинов	-9.96802
▁поставил	-9.96803
▁грубо	-9.96862
енном	-9.96926
▁году	-9.9695
▁вина	-9.96979
▁сказали	-9.97048
чество	-9.97104
▁фр	-9.97112
▁плечо	-9.97182
бре	-9.9724
вым	-9.97267
▁деревне	-9.97314
▁ухо	-9.97367
▁подал	-9.97392
▁предо	-9.97422
▁груб	-9.97448
▁каждом	-9.97501
▁член	-9.97561
▁куст	-9.97797
▁ваша	-9.97816
▁начальник	-9.97825
▁добрый	-9.97848
▁останов	-9.97888
▁сия	-9.97902
▁Гесперия	-9.9797
▁ранен	-9.97979
▁Ю	-9.97983
▁смел	-9.98107
▁власть	-9.98129
▁Ло	-9.98135
▁мокр	-9.98153
ri	-9.98184
▁немедленно	-9.98206
▁господ	-9.98218
▁звуки	-9.98366
▁кус	-9.98428
▁можешь	-9.98442
▁Николая	-9.98442
▁достиг	-9.98474
▁отстав	-9.98477
▁рано	-9.98482
бир	-9.98541
▁мин	-9.98547
▁жар	-9.98565
дом	-9.98581
думал	-9.98613
▁ново	-9.98651
емся	-9.98665
▁земля	-9.98679
ление	-9.98726
▁искусств	-9.98868
▁покой	-9.98888
▁пробормотал	-9.98915
▁твоя	-9.98916
▁сильнее	-9.98916
▁единственно	-9.98924
▁представить	-9.9893
▁жену	-9.98943
▁хлеба	-9.98963
▁ворота	-9.9908
льных	-9.99091
▁смотря	-9.99114
нными	-9.99161
▁сидели	-9.99187
вшейся	-9.99227
▁рукав	-9.99357
▁раска	-9.99363
плы	-9.99381
▁помеша	-9.99391
▁русских	-9.99391
ch	-9.99403
что	-9.99456
▁попал	-9.99465
▁счет	-9.99477
▁шли	-9.99531
▁развит	-9.99532
див	-9.99547
▁которыми	-9.99571
дор	-9.9966
(	-9.9967
▁Эти	-9.99681
вое	-9.99781
чной	-9.99791
▁конец	-9.99818
▁закрыв	-9.99818
▁V	-9.99864
▁общества	-9.99869
▁опас	-9.99921
▁намерен	-9.99933
us	-9.99982
благо	-9.99994
работ	-10.0002
▁прилич	-10.0009
▁общество	-10.0011
▁выйти	-10.0015
▁сделан	-10.0021
▁ровно	-10.0022
танц	-10.0023
▁факт	-10.0024
▁ребенок	-10.0035
▁вернулся	-10.0041
▁слуг	-10.0044
▁ярко	-10.0044
▁мире	-10.0046
▁вашу	-10.005
▁Фед	-10.006
▁чрез	-10.006
▁верил	-10.0061
▁реша	-10.0068
▁посту	-10.007
▁плечами	-10.0074
▁един	-10.0078
▁голов	-10.0098
▁виду	-10.01
эт	-10.0107
▁Евгений	-10.0107
▁некоторые	-10.0107
▁изредка	-10.0108
▁недавно	-10.0109
▁выходит	-10.0109
▁постель	-10.0112
▁остановилась	-10.0114
▁старо	-10.0128
▁светло	-10.0131
▁Андреич	-10.0132
▁кача	-10.0133
▁пойдет	-10.0138
ствовал	-10.0151
кур	-10.0151
▁показать	-10.0158
ены	-10.0162
▁графиня	-10.0177
▁попросил	-10.0187
▁полк	-10.019
▁чаще	-10.0192
▁цели	-10.0197
▁перестал	-10.02
▁принимал	-10.0203
▁сознание	-10.0204
▁успех	-10.0205
▁поля	-10.0209
▁полковник	-10.0212
▁закрыл	-10.0217
▁плен	-10.0223
▁отказ	-10.0224
▁десяти	-10.0229
▁оглядыва	-10.0232
▁рукою	-10.0236
пил	-10.0245
нье	-10.0246
▁площад	-10.0254
▁Борис	-10.0255
▁мудр	-10.0257
▁отцу	-10.0257
чески	-10.0259
▁найти	-10.026
▁смут	-10.0267
▁стрел	-10.0275
▁внезапно	-10.0279
▁пил	-10.0283
▁Петровна	-10.0294
▁засмеялся	-10.0303
▁второй	-10.0304
▁Никит	-10.0306
▁отправился	-10.0309
▁силу	-10.0315
▁Пу	-10.0318
▁хлоп	-10.0321
▁портрет	-10.0328
рут	-10.0332
▁S	-10.0333
Л	-10.0334
▁Иногда	-10.0353
▁воздухе	-10.0359
стыд	-10.0359
▁чувством	-10.0366
▁подробно	-10.0368
▁прошептал	-10.0378
▁гроб	-10.038
ставив	-10.0385
▁думаешь	-10.0389
дка	-10.0391
стар	-10.0397
▁уничтож	-10.0403
▁пользу	-10.0403
▁прибавила	-10.0403
▁прием	-10.0403
▁стороне	-10.0406
трем	-10.0407
первых	-10.0409
▁подобно	-10.0419
рост	-10.0424
▁движение	-10.0424
▁знак	-10.0425
▁Шатов	-10.0428
▁Бел	-10.0436
▁старуха	-10.0441
▁самая	-10.0443
зву	-10.0447
▁выражением	-10.045
▁раздался	-10.0453
▁Слыш	-10.0454
▁нашем	-10.0455
▁19	-10.0455
▁пяти	-10.046
▁словах	-10.0465
▁жестоко	-10.0476
▁двумя	-10.0478
▁неужели	-10.0478
▁ответила	-10.048
▁девочка	-10.0481
носил	-10.0482
вис	-10.0482
▁думает	-10.0486
анные	-10.0492
▁надел	-10.05
▁шляпу	-10.0504
▁поправ	-10.0504
▁17	-10.0505
▁сообщ	-10.0505
зывал	-10.0509
▁недели	-10.0512
писать	-10.0514
▁Опять	-10.0528
▁Макар	-10.0529
▁рос	-10.0531
▁покор	-10.0532
▁показыва	-10.0545
▁мило	-10.0553
▁вздрогнул	-10.0553
▁замолчал	-10.0553
▁секрет	-10.0554
▁дочери	-10.0554
▁бож	-10.0555
▁карт	-10.0557
▁пальцами	-10.0558
▁взяла	-10.0559
▁приказал	-10.0562
▁стру	-10.0568
▁невест	-10.0569
▁показал	-10.057
▁мама	-10.0572
▁рассматрива	-10.0573
▁оскорблен	-10.0579
▁боялся	-10.0579
▁незнаком	-10.0579
▁робко	-10.0581
▁нечто	-10.0594
ьем	-10.06
▁гал	-10.06
▁немножко	-10.0604
▁необходимо	-10.0611
▁кан	-10.0613
▁станов	-10.0614
▁состоял	-10.062
▁писать	-10.0623
живал	-10.0624
▁Чем	-10.0624
▁глубин	-10.063
▁Сергей	-10.063
меня	-10.0634
▁порыв	-10.0634
▁стены	-10.0643
▁жид	-10.0645
▁взяв	-10.0645
▁пути	-10.0654
▁хи	-10.0654
чная	-10.0654
ехав	-10.0655
▁Дмитрий	-10.0655
▁бледно	-10.0655
шить	-10.066
чке	-10.0676
▁оттуда	-10.0681
креп	-10.0683
ращ	-10.0685
▁Бе	-10.0687
енькая	-10.0699
▁нерв	-10.0699
▁носил	-10.0703
▁Рената	-10.0707
▁чувствую	-10.0725
шую	-10.0727
▁собак	-10.0729
▁шест	-10.0733
▁говоришь	-10.0736
▁чаю	-10.0743
▁Есть	-10.0745
▁выгод	-10.0747
енья	-10.075
▁здоровье	-10.0754
▁дорога	-10.0762
▁цель	-10.0768
нести	-10.078
▁отвечать	-10.0784
▁торопливо	-10.0791
▁склон	-10.0794
▁поглядел	-10.08
▁Тот	-10.0801
ющая	-10.0804
▁чувствуя	-10.0811
ён	-10.0817
▁поэт	-10.0817
▁достав	-10.0822
▁L	-10.0824
▁Москвы	-10.0836
▁мундир	-10.0836
▁опыт	-10.0841
▁слух	-10.0848
ждал	-10.0852
▁Игнат	-10.0853
▁улицы	-10.0857
▁ласков	-10.0862
▁неизвестно	-10.0862
▁сомнения	-10.0862
▁глубок	-10.0876
рях	-10.0881
пущен	-10.0888
▁студент	-10.0889
▁силой	-10.0903
▁бра	-10.0909
▁особенности	-10.0912
▁печаль	-10.0912
▁Ее	-10.0914
прежнему	-10.0915
▁крив	-10.0916
▁Правда	-10.0918
▁Николаевна	-10.0924
▁вроде	-10.0925
▁радость	-10.0926
▁Отец	-10.0928
анной	-10.0937
▁пришли	-10.0938
▁сестра	-10.0945
▁сделали	-10.0966
садил	-10.0967
▁Человек	-10.0968
▁раздел	-10.0968
▁скрип	-10.0969
▁вышли	-10.097
▁снял	-10.0972
▁большим	-10.0973
▁отдать	-10.0975
▁боли	-10.0979
▁верст	-10.0979
▁трактир	-10.0994
▁предложил	-10.0994
▁свист	-10.101
хватив	-10.1012
▁рож	-10.1018
▁обязан	-10.1024
▁приходит	-10.1027
ёр	-10.1029
▁A	-10.103
▁заплакал	-10.103
чения	-10.1035
▁дай	-10.1036
▁Куз	-10.1037
▁болезни	-10.1038
▁провел	-10.1039
il	-10.1043
▁похоже	-10.1045
▁намек	-10.1047
▁армии	-10.1047
▁вошла	-10.1048
▁матушка	-10.1048
▁край	-10.1051
▁печ	-10.1052
▁желаю	-10.1054
▁этак	-10.1055
авший	-10.1069
▁плечи	-10.107
лил	-10.107
▁тепл	-10.1071
▁видит	-10.1072
мед	-10.1072
▁наблюда	-10.1074
▁раздражен	-10.1074
жав	-10.1081
▁испытывал	-10.1084
▁ваших	-10.1086
▁верить	-10.1092
▁Вам	-10.1092
▁стук	-10.1095
рист	-10.1096
нуться	-10.1099
▁рис	-10.1107
кля	-10.1108
▁скуч	-10.1119
тых	-10.112
▁указ	-10.1126
▁Ирина	-10.1128
▁жене	-10.1131
▁дик	-10.1138
▁хороший	-10.1143
Как	-10.1154
▁восемь	-10.1154
▁Глава	-10.1154
▁гостей	-10.1156
▁взор	-10.1158
▁лиц	-10.1159
▁разные	-10.1161
▁воду	-10.1162
al	-10.1177
▁море	-10.1178
весел	-10.1178
▁замет	-10.118
▁Рогожин	-10.1181
▁головою	-10.1185
▁Пред	-10.1188
▁круп	-10.1199
▁вкус	-10.12
▁взят	-10.1201
▁приезд	-10.1201
▁возможно	-10.1203
y	-10.1208
▁навсегда	-10.1208
▁бледны	-10.1208
▁явился	-10.1211
▁первой	-10.1211
▁мат	-10.1222
▁искал	-10.1222
▁приду	-10.1223
at	-10.1232
▁лоб	-10.1232
▁ничем	-10.1235
▁автор	-10.1236
▁шагов	-10.1238
ais	-10.124
дки	-10.1246
▁навстречу	-10.1262
льный	-10.1263
чина	-10.1273
▁ожидая	-10.129
▁кучер	-10.1291
▁окончательно	-10.1294
▁толпа	-10.1294
▁бумаги	-10.1295
▁потерял	-10.13
▁откровенно	-10.1302
равля	-10.131
цами	-10.1312
▁Любовь	-10.1317
нской	-10.1318
▁кланя	-10.1319
▁разруш	-10.1323
▁гостя	-10.1333
льная	-10.1341
▁оставить	-10.1341
▁Дело	-10.1342
▁лев	-10.1342
ti	-10.1347
▁света	-10.1351
оваться	-10.1352
▁страха	-10.1354
▁никакой	-10.1358
▁чин	-10.1359
▁старого	-10.1361
▁гостиной	-10.1362
▁Рус	-10.1365
бой	-10.1368
▁видели	-10.1369
бен	-10.1369
▁Долохов	-10.1372
▁извозчик	-10.1372
богу	-10.1377
▁Три	-10.138
▁прочь	-10.1383
гли	-10.1383
▁бред	-10.1389
▁понят	-10.139
▁остановил	-10.1392
▁выпил	-10.1397
▁Позвольте	-10.1399
▁русский	-10.14
ie	-10.1412
▁Господи	-10.1413
▁встала	-10.1419
▁ловко	-10.1423
▁увер	-10.1428
▁t	-10.1443
нимал	-10.1445
▁похвал	-10.1449
▁коридор	-10.1455
▁подошла	-10.1455
▁работы	-10.1455
▁воспитан	-10.1457
▁доктора	-10.1459
▁войны	-10.146
вые	-10.1462
▁Сер	-10.1464
▁торжественно	-10.1469
чти	-10.1479
енько	-10.1485
▁лад	-10.1488
казание	-10.1493
▁саду	-10.1496
▁ответа	-10.1497
▁станет	-10.1498
▁Катя	-10.1511
▁вызыва	-10.1511
▁неделю	-10.1512
ового	-10.1513
▁изумлен	-10.1516
▁рабоч	-10.152
▁M	-10.1526
▁всякой	-10.1536
▁история	-10.1538
▁напряжен	-10.1538
▁мнение	-10.1549
▁жалоб	-10.155
▁ждать	-10.1562
▁понрави	-10.1563
числ	-10.1563
▁Оленин	-10.1567
▁сделала	-10.1567
стями	-10.1571
▁масс	-10.1572
ойдя	-10.1574
▁Мат	-10.1579
ньки	-10.1579
ez	-10.158
▁бежать	-10.1587
▁Какая	-10.1592
казывает	-10.1593
чего	-10.1593
▁штаб	-10.1595
▁голубчик	-10.1597
▁10	-10.1598
тить	-10.1598
▁нисколько	-10.1602
▁власти	-10.1604
▁настроен	-10.1605
▁Рас	-10.1607
▁хр	-10.1616
хнул	-10.1638
учить	-10.1638
▁жениться	-10.1642
тар	-10.1649
▁Лебедев	-10.1651
▁забав	-10.1662
▁Лука	-10.1664
▁остро	-10.1669
▁что́	-10.1675
▁сюртук	-10.1679
▁привез	-10.168
▁самовар	-10.1681
▁живут	-10.1688
▁комнат	-10.1693
▁замечал	-10.1708
▁Ха	-10.1711
▁Толстой	-10.1714
▁пояс	-10.1714
▁никаких	-10.1714
▁хлопот	-10.1716
▁длинно	-10.1716
ne	-10.1716
▁нравственно	-10.1738
▁жила	-10.1741
енными	-10.1747
ческой	-10.1749
▁ключ	-10.1752
▁твоей	-10.1752
▁8	-10.1756
▁кресла	-10.1765
▁большую	-10.1766
▁фигур	-10.1773
▁фраз	-10.1774
▁Михайлов	-10.1777
▁человеч	-10.1778
▁продолжа	-10.1779
▁княгиня	-10.1793
▁посмотри	-10.1793
▁дыша	-10.1794
цем	-10.1795
▁оживлен	-10.1796
нец	-10.1799
лем	-10.1799
ступлен	-10.1808
▁куш	-10.1811
▁Вз	-10.1811
ивают	-10.1812
▁живу	-10.1815
жимая	-10.182
пере	-10.1822
▁Кроме	-10.1822
▁первое	-10.1824
▁испуг	-10.1825
▁почтительно	-10.1827
▁ходит	-10.183
▁класс	-10.183
стию	-10.1831
▁понимать	-10.1831
щую	-10.1835
▁объяснить	-10.1839
▁Бога	-10.184
▁фи	-10.1847
▁секунд	-10.1851
▁русского	-10.1851
▁нового	-10.1852
▁лежит	-10.1854
▁смотри	-10.1856
▁mon	-10.1856
▁хотели	-10.1865
▁Лю	-10.1872
бирал	-10.1873
▁чувствовала	-10.1874
▁Коля	-10.1879
▁тени	-10.1882
▁заснул	-10.1886
▁поднялся	-10.189
▁порог	-10.1894
▁стану	-10.1899
▁рассказать	-10.19
▁рода	-10.1903
▁солнца	-10.1909
▁церковь	-10.1909
▁лестнице	-10.1909
▁брови	-10.191
▁Несколько	-10.1915
▁Одно	-10.1923
▁черные	-10.1924
▁вашим	-10.1927
▁часу	-10.1936
▁табак	-10.1941
▁уйти	-10.1941
▁приказчик	-10.1941
▁шепотом	-10.1943
▁дура	-10.1951
▁проход	-10.1953
▁силах	-10.1961
▁Зна	-10.1963
▁новой	-10.1963
▁бой	-10.1966
▁резко	-10.1986
ём	-10.1987
▁поражен	-10.1991
▁Дев	-10.1993
▁историю	-10.1996
▁un	-10.2
▁Пусть	-10.2003
▁разговора	-10.2003
▁Соня	-10.2004
▁далее	-10.2007
▁Маша	-10.2012
▁обнял	-10.2019
▁удовольствием	-10.202
▁7	-10.2021
чную	-10.2024
▁забор	-10.2025
▁Генерал	-10.2026
▁прокурор	-10.2026
▁супруг	-10.2026
▁сударь	-10.2026
▁квартир	-10.2032
▁гол	-10.2034
▁адъютант	-10.2036
▁сидеть	-10.2036
▁знают	-10.204
▁молодого	-10.2045
Ну	-10.2049
зер	-10.2051
▁бил	-10.2052
▁трудом	-10.2053
▁красиво	-10.2055
▁несчастны	-10.2055
▁слышно	-10.2055
тесь	-10.2057
▁удовольствие	-10.206
▁подыма	-10.2067
▁спеш	-10.2069
<	-10.207
ован	-10.2073
▁баба	-10.2076
▁худ	-10.2081
▁отъезд	-10.2082
▁плакал	-10.2085
lle	-10.2086
▁Тарас	-10.2087
рать	-10.2094
▁колес	-10.2094
▁дворян	-10.2105
▁первом	-10.2116
▁письме	-10.2116
сыпал	-10.2117
щее	-10.2117
▁открыв	-10.2117
▁9	-10.2119
▁X	-10.2128
вшееся	-10.2128
▁Анны	-10.2129
раб	-10.213
▁послуш	-10.213
▁Семен	-10.2135
емый	-10.214
▁Воз	-10.2144
▁крови	-10.2147
писал	-10.2148
▁небес	-10.215
▁путь	-10.2152
▁возле	-10.2155
▁сапог	-10.2157
▁солдаты	-10.2159
▁Без	-10.2161
▁пусты	-10.2168
▁скажите	-10.2169
▁приход	-10.2173
▁исполнен	-10.2173
▁улыбка	-10.2173
▁увлек	-10.2174
▁хвост	-10.2181
▁отношения	-10.2182
бить	-10.2182
▁горы	-10.2189
▁содержа	-10.2191
▁шир	-10.2191
▁насмеш	-10.2193
▁пыл	-10.2195
▁je	-10.2195
▁влияние	-10.2204
▁работу	-10.2204
▁вышло	-10.2205
▁пришлось	-10.2206
▁угла	-10.2207
▁скр	-10.2217
▁осталось	-10.2217
z	-10.2218
▁Настасья	-10.2233
▁потряс	-10.2233
▁великодуш	-10.2235
скать	-10.2239
▁Город	-10.2248
▁понимает	-10.225
▁Вид	-10.2252
▁мужика	-10.2256
▁милая	-10.2257
▁похожи	-10.2258
▁чт	-10.226
▁приподнял	-10.2263
▁высокий	-10.2263
▁Долго	-10.2264
▁повторял	-10.2264
▁посмотрела	-10.227
▁основан	-10.227
вшими	-10.2272
▁ел	-10.2282
▁проходил	-10.2287
очек	-10.2287
▁губами	-10.229
нется	-10.2291
▁воли	-10.2292
▁Ипполит	-10.2293
▁поскорее	-10.2293
▁свободно	-10.2297
▁отворил	-10.2302
▁возможности	-10.2302
▁генерала	-10.2307
▁слышать	-10.2308
кого	-10.2313
▁заставил	-10.2314
▁Петров	-10.2315
▁сине	-10.2321
▁15	-10.2323
▁Граф	-10.2324
▁Катерина	-10.2324
▁мыслей	-10.2324
▁спину	-10.2325
тали	-10.2326
▁бывал	-10.2328
▁вагон	-10.2332
▁слава	-10.2337
▁привел	-10.2344
▁pas	-10.2344
гар	-10.2346
чий	-10.2347
пишу	-10.2349
▁созда	-10.2355
ёт	-10.2356
тян	-10.2358
▁пусто	-10.2359
▁тела	-10.2372
▁взглянула	-10.2376
ant	-10.2379
▁любопытством	-10.2383
▁отрица	-10.2385
▁жадно	-10.2385
имся	-10.2385
▁обстоятельств	-10.2385
▁Уже	-10.2389
▁Михайловна	-10.2399
истов	-10.24
▁Наполеона	-10.2408
▁стан	-10.2412
▁слушая	-10.2415
▁Нелли	-10.2416
так	-10.2419
били	-10.2426
li	-10.2433
▁памяти	-10.2446
ворот	-10.2446
▁брак	-10.2461
—	-10.2463
▁карты	-10.2463
▁женщину	-10.2466
ряж	-10.2468
▁работать	-10.2471
▁владе	-10.2472
▁Разумеется	-10.2476
▁беспрестанно	-10.2476
▁удовольствия	-10.2476
▁участие	-10.2476
▁послышался	-10.2476
▁дескать	-10.2479
вшаяся	-10.2497
▁поняла	-10.2498
▁слеп	-10.2498
▁многие	-10.2507
▁лесу	-10.2533
▁посмотреть	-10.2538
▁кричит	-10.2538
▁убить	-10.2539
▁заплат	-10.2541
▁сердит	-10.2542
▁семейств	-10.2548
▁смешн	-10.2568
▁Однажды	-10.2569
▁блеск	-10.2572
▁Нил	-10.2573
▁положения	-10.2573
ствовать	-10.2575
▁подлец	-10.2582
▁умею	-10.2587
▁заметила	-10.259
▁шуб	-10.2597
▁Григорий	-10.26
▁каждого	-10.26
▁определен	-10.26
▁пальцем	-10.26
▁требовал	-10.26
▁маленькой	-10.26
▁спустя	-10.2606
▁проси	-10.261
▁стихи	-10.2618
▁другими	-10.2621
▁любезн	-10.2624
▁командир	-10.2628
▁воспоминания	-10.2631
▁красавиц	-10.2631
▁многих	-10.2631
▁произошло	-10.2631
▁пойдем	-10.2631
▁сражения	-10.2631
▁ушла	-10.2634
▁прислушива	-10.2634
▁команд	-10.2636
лями	-10.2636
либо	-10.2636
▁жизнью	-10.2637
▁бросилась	-10.2643
ent	-10.2644
▁удивительно	-10.2647
▁состояние	-10.2648
▁соверш	-10.2648
▁справедливо	-10.2651
▁ce	-10.2657
▁русские	-10.2662
▁мягко	-10.2663
▁Париж	-10.2663
▁удивлением	-10.2665
▁машин	-10.2665
спокойн	-10.2672
▁появи	-10.2673
▁нашу	-10.2679
огляд	-10.2683
▁объяснил	-10.2685
▁веру	-10.269
▁произведен	-10.2693
▁большая	-10.2697
▁смеясь	-10.2718
▁Кирил	-10.2721
▁дорогой	-10.2723
▁взглянув	-10.2725
▁исполня	-10.2725
▁ребят	-10.2725
▁Пре	-10.2732
водя	-10.2738
si	-10.2744
▁счастливы	-10.2748
▁дрожал	-10.2751
нешь	-10.2752
▁Александра	-10.2752
▁стих	-10.2758
▁пыта	-10.2758
▁знамени	-10.2758
тирая	-10.2759
▁платок	-10.2767
чился	-10.2768
▁видне	-10.2775
▁передо	-10.278
▁Андр	-10.2787
▁Сейчас	-10.2788
▁огромно	-10.2788
▁известны	-10.2791
▁торжеств	-10.2794
▁выйдет	-10.2802
[3	-10.2811
▁горько	-10.2821
слышались	-10.2823
▁двора	-10.2828
жусь	-10.2829
▁начинает	-10.283
▁греш	-10.2832
правда	-10.2834
▁посыла	-10.2835
▁хорошенько	-10.2837
au	-10.2837
▁делают	-10.2838
лять	-10.2839
▁брал	-10.284
▁r	-10.284
▁склад	-10.2841
▁пыль	-10.2851
▁вспоминал	-10.2852
▁Володя	-10.2852
▁миллион	-10.2852
am	-10.2853
▁чудес	-10.2853
▁P	-10.2858
▁переход	-10.2874
▁зуб	-10.2879
видимому	-10.2881
сторож	-10.2882
▁Латыгин	-10.2884
▁оглянулся	-10.2884
▁русской	-10.2884
▁комната	-10.2888
▁развяз	-10.289
ставь	-10.2895
▁находился	-10.2899
ленно	-10.2909
▁заключен	-10.2916
▁кавалер	-10.2916
▁Слушай	-10.2916
▁мрачно	-10.2916
скакал	-10.2921
▁устав	-10.2921
▁спрашивает	-10.2926
▁див	-10.2932
▁государств	-10.2937
▁леса	-10.2941
▁уши	-10.2945
▁рада	-10.2947
▁помощь	-10.2948
▁румян	-10.2948
▁слыхал	-10.2948
▁Наташе	-10.295
▁позор	-10.2967
крашен	-10.2969
▁забыть	-10.2973
чного	-10.2973
резал	-10.2975
▁дали	-10.2975
▁Сначала	-10.298
▁кузнец	-10.298
▁возбужден	-10.298
▁последней	-10.298
▁дожида	-10.2981
▁III	-10.2981
▁выразил	-10.2982
▁верю	-10.2998
▁Несмотря	-10.3012
▁друзья	-10.3012
▁напрасно	-10.3012
▁Ежели	-10.3013
▁ездил	-10.3014
▁государ	-10.3028
водить	-10.303
▁en	-10.3032
▁слове	-10.3035
▁собака	-10.3039
▁толпы	-10.3043
▁доволен	-10.3045
▁идеал	-10.3047
▁заметить	-10.3055
▁Час	-10.3056
▁Перед	-10.3059
▁повернул	-10.306
▁Говори	-10.3062
▁увидит	-10.3073
▁сохрани	-10.3078
ъезд	-10.3084
▁ссор	-10.3087
▁императора	-10.3093
французски	-10.3094
▁согласился	-10.3094
▁услышал	-10.3102
▁хозяина	-10.311
▁судьба	-10.311
▁дитя	-10.3111
▁господи	-10.3121
▁Васильев	-10.3128
▁глухо	-10.3129
ce	-10.3131
▁основ	-10.3141
▁старух	-10.3143
▁двадцати	-10.3143
▁любо	-10.3146
▁губернатор	-10.3151
▁женой	-10.3156
▁храм	-10.3161
читал	-10.3163
▁пожар	-10.3167
▁Вас	-10.3169
▁застал	-10.3175
▁Гесперии	-10.3176
▁граждан	-10.3176
▁события	-10.3176
▁страдания	-10.3176
▁камень	-10.3176
▁Гру	-10.3178
ждать	-10.3181
▁опустив	-10.3187
▁g	-10.319
▁встрет	-10.3194
ve	-10.3208
▁воскрес	-10.3208
▁университет	-10.3209
▁улыбнулась	-10.3209
▁первые	-10.3211
▁ступай	-10.3216
▁этими	-10.3217
▁торгов	-10.3218
скими	-10.3228
▁большое	-10.3242
om	-10.3248
вшимся	-10.3257
▁песни	-10.3259
▁дамы	-10.3264
▁сделаю	-10.3265
▁будь	-10.3265
▁считаю	-10.3268
▁нагну	-10.327
▁Гри	-10.3275
▁Михаил	-10.3275
▁ещё	-10.3275
▁значение	-10.3275
▁лакей	-10.3275
▁залу	-10.3277
жить	-10.3277
▁12	-10.3277
▁13	-10.3278
▁волнение	-10.328
▁прочел	-10.3284
▁берегу	-10.3285
гер	-10.3289
▁пустил	-10.3289
вшуюся	-10.329
eur	-10.3291
▁вспомни	-10.3295
▁хор	-10.3299
▁первых	-10.33
▁рассе	-10.3301
ывают	-10.3303
▁направлен	-10.3306
▁новых	-10.3311
▁спуска	-10.3311
▁сказано	-10.3314
▁служил	-10.332
▁любовью	-10.332
▁вынул	-10.3322
▁одинок	-10.3323
▁сби	-10.3326
▁Нам	-10.3332
▁шля	-10.3336
▁гость	-10.334
▁Всеволодович	-10.3342
▁привлек	-10.3342
▁Долли	-10.3342
▁Марьи	-10.3342
▁Николаевич	-10.3344
▁хотят	-10.3344
▁C	-10.3346
▁Марье	-10.3349
▁ничто	-10.3353
▁указал	-10.3362
▁полюбил	-10.3365
вшем	-10.337
▁Много	-10.3375
▁Никто	-10.3376
ктор	-10.3379
▁дорого	-10.3383
▁французов	-10.3386
▁гостиную	-10.3388
▁толп	-10.3399
▁тонко	-10.34
▁шаги	-10.3401
▁решен	-10.3403
▁кофе	-10.3404
▁молчание	-10.3404
▁усы	-10.3407
“	-10.3409
▁некогда	-10.3409
▁Смотри	-10.3409
казывать	-10.341
▁трепет	-10.341
▁жених	-10.3411
▁учитель	-10.3411
▁годы	-10.3412
▁сторож	-10.3422
▁пропал	-10.3427
На	-10.3435
▁понимаешь	-10.3443
▁пароход	-10.3443
▁предполож	-10.3446
ающий	-10.345
смотрел	-10.346
▁причины	-10.3461
▁волосами	-10.3465
▁представи	-10.3466
▁остались	-10.3472
▁плакать	-10.3477
▁думая	-10.3477
▁правил	-10.3478
▁охотник	-10.3482
▁занимал	-10.3494
la	-10.3494
▁целовал	-10.3502
▁сделает	-10.3505
▁талант	-10.3511
▁Лизавета	-10.3511
▁лап	-10.3513
▁Благо	-10.3514
–	-10.3517
▁делается	-10.352
▁состоя	-10.352
▁легче	-10.3526
▁семи	-10.3529
▁новым	-10.3536
▁возможность	-10.3541
▁Лев	-10.3542
▁страдал	-10.3544
▁Ламберт	-10.3545
▁предполага	-10.3545
▁нашим	-10.3547
▁Знаете	-10.3547
▁Кириллов	-10.3549
▁волнения	-10.3556
▁мысля	-10.3559
▁клуб	-10.356
▁милости	-10.3563
▁Ста	-10.3565
▁оправ	-10.3568
▁Бар	-10.357
▁горя	-10.3574
▁буд	-10.3577
ьер	-10.3578
▁усмехнулся	-10.3579
▁Осип	-10.358
▁штук	-10.3585
▁поразил	-10.3586
▁манер	-10.359
▁духов	-10.3596
▁Гм	-10.3611
▁художник	-10.3614
▁сиятельство	-10.3614
ленный	-10.3616
▁густ	-10.3621
ющими	-10.3623
люд	-10.3624
▁Чи	-10.3625
▁плакала	-10.3625
▁сказав	-10.3627
▁акт	-10.3632
▁остается	-10.3632
▁лежала	-10.3635
водит	-10.3646
▁стене	-10.3647
▁отсюда	-10.3648
исты	-10.3652
▁корм	-10.3652
▁обыкновен	-10.3656
▁полос	-10.3657
стях	-10.3659
▁проник	-10.3666
▁шее	-10.3668
Нет	-10.368
▁пистолет	-10.3683
▁помолчал	-10.3683
▁низко	-10.3693
▁Татьян	-10.3694
дельно	-10.3705
▁2	-10.3711
пуская	-10.3714
▁проводил	-10.3715
▁торопи	-10.3722
▁средств	-10.3736
▁vo	-10.3746
▁воле	-10.3747
бед	-10.3752
▁тридцать	-10.3752
▁нежели	-10.3758
▁давай	-10.3763
▁Потому	-10.377
▁доход	-10.3783
▁эк	-10.3783
▁Владимир	-10.3787
▁орган	-10.3787
▁любишь	-10.3787
▁Наташи	-10.3787
▁букв	-10.3789
▁подняв	-10.3793
▁открыт	-10.3812
готов	-10.3818
▁14	-10.382
▁каждым	-10.3822
▁смеяться	-10.3822
▁произвел	-10.3823
▁презрительно	-10.3823
▁наверх	-10.3826
▁разбит	-10.3848
тельные	-10.3848
▁ящик	-10.3851
▁известие	-10.3853
ливы	-10.3854
▁белые	-10.3857
▁страстно	-10.386
сек	-10.3861
▁чувствует	-10.3864
▁богаты	-10.3869
▁адвокат	-10.3893
▁Весь	-10.3895
▁спальн	-10.39
▁выразить	-10.3901
▁мужики	-10.3908
▁любят	-10.3909
нью	-10.3912
ющем	-10.3915
чком	-10.3926
▁Софья	-10.3928
▁Христа	-10.3928
▁вслух	-10.3928
▁пальцы	-10.3928
▁густо	-10.3929
▁становилось	-10.393
▁новую	-10.393
ющую	-10.3939
▁Мало	-10.3941
▁щеки	-10.3943
▁покупа	-10.3944
▁водки	-10.3955
▁современн	-10.3955
▁вздрагива	-10.3964
▁побледнел	-10.3964
▁Сколько	-10.3964
▁выражен	-10.3966
▁двое	-10.3968
▁случи	-10.3968
▁игру	-10.397
▁деревню	-10.397
души	-10.3971
▁застав	-10.3973
▁Право	-10.3974
ставляет	-10.3974
▁днем	-10.3975
▁тоном	-10.398
▁поклонился	-10.3997
лё	-10.3999
▁Пойдем	-10.4
▁гусар	-10.4
▁обращен	-10.4004
ливый	-10.4012
▁бодр	-10.4015
▁улыбался	-10.4018
▁могил	-10.4019
▁Вася	-10.4022
▁странное	-10.4027
ниц	-10.4028
▁вещь	-10.4036
▁желания	-10.4036
▁признаюсь	-10.4037
▁казался	-10.4038
▁становится	-10.4039
m	-10.4041
▁Хорош	-10.4042
▁сочинен	-10.4045
▁любите	-10.4053
болт	-10.4056
▁уходил	-10.4063
▁смехом	-10.4064
несли	-10.4065
▁бас	-10.4068
▁обстоятельства	-10.407
▁матерью	-10.4071
▁шептал	-10.4071
▁ступ	-10.4073
▁мучил	-10.4076
▁Люди	-10.4077
тянул	-10.408
▁Дмитриевна	-10.408
▁погуби	-10.408
емые	-10.4082
ai	-10.4088
▁домов	-10.4092
глядел	-10.4095
▁печат	-10.4096
ro	-10.4097
▁стуча	-10.4098
▁Иди	-10.4103
▁представлял	-10.4103
▁шагами	-10.4105
▁тесно	-10.4107
▁наслаждение	-10.4108
ический	-10.4111
▁подумать	-10.4119
▁Скажите	-10.4121
▁священник	-10.4121
говаривать	-10.4142
▁увидав	-10.4145
▁искать	-10.4145
ait	-10.4147
▁прыг	-10.4147
▁отчая	-10.4154
гнать	-10.4155
▁тепло	-10.4159
▁зол	-10.4164
▁сапоги	-10.4165
▁роль	-10.4173
▁беспокойство	-10.418
▁энерги	-10.418
▁убийств	-10.418
▁строй	-10.4184
▁несомненно	-10.4188
▁D	-10.4188
▁представлен	-10.419
▁заметив	-10.4191
▁сени	-10.4193
▁офицера	-10.4194
Э	-10.421
свет	-10.4212
зь	-10.4214
▁притвор	-10.4216
▁встав	-10.4216
▁вырвал	-10.4218
▁носом	-10.4219
лева	-10.4219
ленные	-10.4228
▁дает	-10.4236
▁Рад	-10.4236
▁молодых	-10.4244
енькой	-10.4244
▁туч	-10.4246
▁остаться	-10.4247
▁бить	-10.4248
▁твоего	-10.4249
▁убив	-10.4252
▁освещен	-10.4253
▁служить	-10.4254
▁маленькие	-10.4254
▁палат	-10.4257
▁Ваня	-10.4259
▁тип	-10.4272
▁пух	-10.4283
▁банк	-10.4288
▁экипаж	-10.429
▁множество	-10.429
▁ниже	-10.4291
▁проигра	-10.4291
▁полков	-10.4297
▁хрип	-10.4297
Он	-10.4301
▁захотел	-10.4324
▁Филипп	-10.4325
дернул	-10.4327
▁счастья	-10.4327
▁защища	-10.4328
▁такими	-10.433
щими	-10.433
▁держать	-10.4354
▁предложение	-10.4356
▁страсти	-10.4358
▁оказалось	-10.4364
▁условия	-10.4364
▁20	-10.4367
▁дверей	-10.4367
▁удалось	-10.4372
▁боится	-10.4381
▁мужиков	-10.4381
▁шага	-10.4386
▁лез	-10.4387
sse	-10.4389
▁целые	-10.439
▁повернулся	-10.4392
Ч	-10.4396
очке	-10.4399
▁ныне	-10.4401
▁Хлестаков	-10.4401
▁заключа	-10.4401
▁разврат	-10.4401
▁пишет	-10.4402
▁прийти	-10.4403
▁благородно	-10.4404
▁посетит	-10.4406
▁хвал	-10.4412
▁совести	-10.4417
все	-10.4417
▁заметно	-10.4418
нимает	-10.4423
▁признан	-10.4423
▁монастыр	-10.4426
▁изменил	-10.4427
▁хохот	-10.4433
▁учил	-10.4434
▁стула	-10.4435
▁храбр	-10.4439
▁счастие	-10.4439
▁поступил	-10.444
▁Затем	-10.444
щур	-10.4441
▁халат	-10.4443
▁продолжать	-10.4445
▁платья	-10.4445
▁les	-10.4446
▁Тебе	-10.4448
▁qu	-10.4457
▁сердцем	-10.4458
▁приятны	-10.4462
▁братец	-10.4465
▁богом	-10.4468
▁угрюмо	-10.4469
▁взволнован	-10.4476
ur	-10.4476
▁отчасти	-10.4477
▁маленькая	-10.4477
▁кип	-10.4477
▁квартиру	-10.4481
▁Прощайте	-10.4485
▁каса	-10.4487
▁еду	-10.449
▁связан	-10.449
лер	-10.4495
▁рассказы	-10.4497
бирать	-10.4497
▁третье	-10.4504
▁совестно	-10.4514
▁употребля	-10.4514
▁журнал	-10.4514
▁барыня	-10.4514
▁Аглая	-10.4514
▁останется	-10.4515
▁Тем	-10.4517
носить	-10.4519
чивал	-10.4521
ительным	-10.4523
▁тайны	-10.4525
▁тряс	-10.4525
▁Ох	-10.4526
▁герой	-10.4526
▁испуган	-10.4531
ir	-10.4538
▁ногах	-10.454
▁переста	-10.4541
▁Одна	-10.4544
авших	-10.4545
▁величайш	-10.4551
▁каждое	-10.4551
▁озабочен	-10.4551
▁серьезны	-10.4551
▁первую	-10.4551
▁тобою	-10.4552
▁Юлиан	-10.4552
▁громад	-10.4553
▁числе	-10.4554
▁хорошего	-10.4555
нейший	-10.4556
▁Фа	-10.4557
▁обратилась	-10.4561
▁злобно	-10.4561
▁трус	-10.4565
▁скот	-10.4572
▁государя	-10.4576
говаривая	-10.4588
▁старые	-10.4589
▁пятьдесят	-10.4589
▁арестант	-10.4589
de	-10.459
▁послан	-10.4592
▁лекар	-10.4592
▁нравится	-10.4596
▁спокойны	-10.4598
▁Знаю	-10.4604
▁значительно	-10.4608
▁казаки	-10.4609
▁урок	-10.4614
▁спрашиваю	-10.4622
▁незаметно	-10.4627
▁записку	-10.4627
▁Елена	-10.4627
▁смеялся	-10.4627
▁отряд	-10.4628
▁испуганно	-10.463
▁обещан	-10.4632
▁бывают	-10.4633
ge	-10.4635
чек	-10.4636
▁сует	-10.4638
▁ман	-10.4639
▁волю	-10.4642
▁обедать	-10.4646
▁грустн	-10.465
цом	-10.4652
▁восста	-10.4653
▁прошла	-10.4662
▁поговорить	-10.4663
правился	-10.4664
▁вспыхнул	-10.4665
▁прокричал	-10.4665
▁Завтра	-10.4665
▁разбойник	-10.4666
▁сего	-10.4666
▁прервал	-10.4666
▁висел	-10.4673
▁Какое	-10.4674
ицу	-10.4676
▁купил	-10.4677
▁любовн	-10.469
▁кармана	-10.4694
жение	-10.4699
▁намерение	-10.4702
▁Можно	-10.4704
▁помочь	-10.4704
▁девушки	-10.4707
▁первая	-10.471
пев	-10.4712
▁выражения	-10.4714
▁строг	-10.4714
▁обер	-10.4721
▁насмешливо	-10.4733
▁книга	-10.4738
▁Никогда	-10.4742
▁Кра	-10.4743
▁Лаврецкий	-10.4744
льным	-10.4746
▁просит	-10.4763
▁толку	-10.4765
▁моря	-10.4767
Это	-10.4775
▁перевод	-10.478
▁говор	-10.478
▁вполголоса	-10.4781
▁хозяйка	-10.4781
▁кончено	-10.4781
▁сомнева	-10.4782
▁примет	-10.4783
▁бросить	-10.4785
▁случайно	-10.4793
▁позвал	-10.4794
▁Стало	-10.4797
Вот	-10.4802
чуть	-10.4802
▁осталась	-10.4811
шками	-10.4817
▁пристав	-10.4822
▁дверях	-10.4822
▁передать	-10.4824
▁такою	-10.4835
▁признак	-10.4841
▁надежды	-10.4846
▁телом	-10.4846
дается	-10.4851
▁*	-10.4855
▁заключил	-10.4858
▁свидания	-10.4858
▁твор	-10.4861
▁Щ	-10.4864
▁рассказа	-10.4865
▁решение	-10.4868
▁диване	-10.4871
▁остановить	-10.4877
▁11	-10.4883
▁глядеть	-10.4897
▁обрадовал	-10.4897
▁шапку	-10.4898
▁поднять	-10.49
▁уступ	-10.4902
▁перенес	-10.4903
▁черными	-10.4909
▁падал	-10.491
▁лома	-10.4911
бьют	-10.4911
ировать	-10.4914
▁нехорошо	-10.4916
▁<	-10.4916
▁назвал	-10.4919
▁добра	-10.4921
▁дума	-10.4921
▁болезнь	-10.4926
▁горячо	-10.493
▁контор	-10.4933
▁Анне	-10.4934
▁высшей	-10.4937
▁сурово	-10.4938
▁Доктор	-10.4939
▁белой	-10.4942
вторых	-10.495
▁расчет	-10.4953
▁вздох	-10.4955
▁умерла	-10.4957
▁Кате	-10.4963
I	-10.497
▁16	-10.497
ливая	-10.4972
▁ждала	-10.4974
▁Гаврила	-10.4976
▁кровати	-10.4976
▁сестры	-10.4976
▁уезд	-10.4987
▁понимая	-10.4997
чко	-10.5004
▁крики	-10.5013
▁пришло	-10.5014
▁вода	-10.5015
▁некоторое	-10.5016
▁пользова	-10.5016
▁память	-10.5016
▁Хотя	-10.5017
▁захват	-10.5019
▁неправ	-10.5022
▁задумался	-10.5024
▁Мал	-10.5026
▁малый	-10.5038
▁болезненно	-10.5042
свобод	-10.5044
▁смысле	-10.505
▁несчастно	-10.5055
▁Скоро	-10.5056
▁Жив	-10.5057
▁пойти	-10.506
▁Два	-10.5062
▁ласк	-10.5062
▁смотрите	-10.5064
▁трое	-10.5078
▁Сад	-10.5082
▁Карл	-10.5088
▁другому	-10.509
▁ружье	-10.5095
▁едет	-10.5098
чков	-10.5101
▁подходил	-10.5108
цкого	-10.5118
▁крот	-10.5131
▁большими	-10.5132
▁расположен	-10.5133
▁маленьким	-10.5136
▁уедин	-10.5136
▁наружн	-10.5138
▁отозвал	-10.514
ций	-10.5143
станет	-10.5144
▁открыто	-10.5146
▁третьего	-10.5154
▁простить	-10.5171
▁(17	-10.5175
▁мороз	-10.5179
▁оставаться	-10.518
телю	-10.5181
ическое	-10.5181
▁смело	-10.5189
▁кулак	-10.5192
▁фрак	-10.5193
стает	-10.5194
▁красным	-10.5195
▁тень	-10.5205
▁стоят	-10.5209
ons	-10.5213
&#232;	-10.5216
▁коротко	-10.5216
▁оборот	-10.5217
▁окну	-10.5217
▁понимаете	-10.5217
▁спит	-10.5218
▁помнил	-10.5224
▁ch	-10.5225
▁больной	-10.5228
▁передней	-10.5228
▁сделалось	-10.5239
▁клад	-10.5243
▁сообщил	-10.5246
▁крыльцо	-10.5256
▁Кузьма	-10.5256
▁умереть	-10.5257
▁истинно	-10.5257
▁задума	-10.5267
▁болта	-10.5269
▁обоих	-10.5273
▁покорно	-10.5284
▁судить	-10.5285
тесн	-10.5285
▁отцом	-10.5289
▁сущности	-10.5297
▁приготовлен	-10.5298
▁отказыва	-10.5314
▁меч	-10.5319
▁фигура	-10.5322
▁Итак	-10.5322
▁начать	-10.5323
▁пошло	-10.5325
▁мучительно	-10.5328
ствует	-10.5331
▁поворот	-10.5333
▁поспешил	-10.5338
▁IV	-10.5339
поль	-10.5344
▁предан	-10.5346
▁средства	-10.535
▁передал	-10.5351
▁Мор	-10.5353
▁тронул	-10.536
▁se	-10.5366
▁искр	-10.5366
▁возбужда	-10.5366
бар	-10.5373
▁бормотал	-10.5379
▁достаточно	-10.5379
▁твою	-10.5379
▁вследствие	-10.5379
▁Павла	-10.5379
▁даст	-10.5379
▁довольны	-10.5389
▁стон	-10.5389
▁подробности	-10.5394
▁Бур	-10.5402
▁князем	-10.5404
▁скрыв	-10.5404
русски	-10.5405
▁опасно	-10.5405
▁спрашива	-10.5406
▁молодые	-10.5409
жиг	-10.5412
▁Господин	-10.5413
▁показался	-10.5414
▁барыш	-10.5417
▁Хоть	-10.5418
▁Акулина	-10.542
▁Господа	-10.542
▁Княжна	-10.542
▁согласен	-10.542
▁большого	-10.542
▁дрян	-10.5431
▁умилен	-10.5433
▁верхом	-10.544
▁исполни	-10.5441
▁выбежал	-10.5447
▁ждет	-10.5451
▁случалось	-10.5461
▁слышит	-10.5461
▁монах	-10.5462
▁внизу	-10.5464
▁демон	-10.5466
▁длинный	-10.5482
▁Николаев	-10.5486
▁сверх	-10.549
▁тревож	-10.5499
▁папирос	-10.5502
▁юноша	-10.5502
▁Прежде	-10.5502
▁Петя	-10.5503
▁кровать	-10.5503
▁русским	-10.5505
очкой	-10.5521
▁Видно	-10.5528
ировал	-10.5529
▁Какие	-10.5533
▁хитро	-10.5548
▁чести	-10.555
▁обвиня	-10.555
▁оглядываясь	-10.5553
▁обратил	-10.5554
▁барон	-10.5557
▁XX	-10.5559
пен	-10.5562
▁ne	-10.5563
ёл	-10.5571
где	-10.5574
против	-10.5577
▁спрашивать	-10.558
▁принялся	-10.5585
▁бесконечно	-10.5586
▁последнего	-10.5586
▁старичок	-10.5586
▁Глаза	-10.5586
▁пальто	-10.5586
our	-10.559
▁больна	-10.5592
▁показалась	-10.5594
бился	-10.5595
ui	-10.5599
ирован	-10.56
▁старая	-10.5602
▁Бедн	-10.5607
▁лент	-10.5607
▁идея	-10.5609
▁закрыт	-10.561
▁Значит	-10.5615
▁pr	-10.5617
▁расход	-10.5623
▁Ставрогин	-10.5628
▁родственник	-10.5628
▁Фомич	-10.5628
▁проповед	-10.5628
▁боялась	-10.5628
моему	-10.5628
▁деревни	-10.5629
▁дядюшка	-10.563
▁подходя	-10.565
▁толпе	-10.5658
▁дуб	-10.566
▁темноте	-10.5661
▁встречал	-10.567
▁прочим	-10.567
▁накануне	-10.567
▁Симмах	-10.567
▁направо	-10.567
▁вдвое	-10.5671
▁сердцу	-10.5672
▁бабушки	-10.5672
▁Саша	-10.5673
▁показывал	-10.5674
▁обеими	-10.5674
▁проснулся	-10.5674
▁входил	-10.5689
▁вести	-10.5693
▁Боль	-10.5697
▁облег	-10.5697
▁страсть	-10.5702
▁приговор	-10.5704
▁музыка	-10.5712
▁одобр	-10.5712
▁мелькнул	-10.5713
▁свободы	-10.5713
▁дьявол	-10.5713
▁лбу	-10.5714
▁кивнул	-10.5714
▁Пушкин	-10.5714
▁казалась	-10.5716
▁упорно	-10.5721
▁печально	-10.5727
▁вызвал	-10.5728
▁соверша	-10.5737
▁верит	-10.5748
▁смерт	-10.5749
коле	-10.5755
▁службу	-10.5755
▁Ступай	-10.5755
▁шевели	-10.5755
▁тревог	-10.5756
▁течение	-10.5756
▁коленях	-10.5757
▁пляс	-10.576
▁кровью	-10.5766
▁Точно	-10.5771
▁Тре	-10.5777
бург	-10.5779
▁делали	-10.578
ическая	-10.5786
▁di	-10.5786
▁Смердяков	-10.5798
▁принужден	-10.5798
▁улиц	-10.58
▁захотелось	-10.5802
▁свободны	-10.5806
▁хорошее	-10.5817
▁новая	-10.5823
правит	-10.5826
▁совершен	-10.583
Х	-10.584
▁маленькую	-10.5841
▁отношении	-10.5841
▁одинаково	-10.5841
▁служа	-10.5842
▁вошли	-10.5842
▁движением	-10.5847
▁Любо	-10.585
em	-10.5869
люсь	-10.587
▁товарищей	-10.5875
▁черты	-10.5879
шения	-10.5879
казав	-10.5881
тельным	-10.5881
▁огорч	-10.5882
▁уважение	-10.5884
elle	-10.5888
▁мешал	-10.5893
▁свойств	-10.5907
шкин	-10.5907
▁раздава	-10.5912
▁N	-10.5912
▁бос	-10.592
▁лошад	-10.5921
▁которою	-10.5927
▁Варя	-10.5928
▁мрак	-10.593
тельство	-10.5931
▁Юний	-10.5934
▁темные	-10.5934
▁наверное	-10.5942
▁времена	-10.5943
VIII	-10.5965
▁неожиданн	-10.5966
▁Суд	-10.5967
ci	-10.597
▁кухню	-10.5971
▁хмур	-10.5971
▁мелька	-10.5971
▁начальство	-10.5972
▁держит	-10.5973
▁извините	-10.5974
▁считать	-10.5976
▁испыта	-10.5977
▁странным	-10.5984
евич	-10.5985
вшимися	-10.5986
▁приближа	-10.5988
▁поверил	-10.5993
▁бабы	-10.5996
леб	-10.6
▁срок	-10.6001
▁Ефим	-10.6013
▁справ	-10.6014
▁сравн	-10.6014
▁продолжение	-10.6014
▁пятнадцать	-10.6014
▁детства	-10.6014
▁Катю	-10.6015
▁всякое	-10.6015
▁Болконск	-10.6015
▁татар	-10.6016
▁дедушка	-10.6018
▁187	-10.6019
▁отлично	-10.6021
думать	-10.6023
▁считает	-10.6023
▁молчалив	-10.6029
ического	-10.6032
▁ужасом	-10.6032
▁Семенов	-10.6035
▁шагом	-10.6037
▁гордость	-10.6039
▁Мария	-10.6043
▁четырех	-10.6043
▁дверью	-10.6051
▁целую	-10.6053
▁груд	-10.6053
шёл	-10.6057
▁задрожал	-10.6058
▁отвечая	-10.6058
▁племянник	-10.6058
▁отыскива	-10.6058
▁помощи	-10.6058
▁1812	-10.6059
▁постоял	-10.606
▁казались	-10.6061
▁покойно	-10.6063
несла	-10.6072
▁способно	-10.6078
▁поручен	-10.608
▁одних	-10.6082
▁глупости	-10.6084
сколько	-10.6088
▁казаков	-10.6096
▁шло	-10.6097
▁собаки	-10.6102
▁губернии	-10.6102
▁разговаривал	-10.6102
▁180	-10.6108
▁всякую	-10.6109
▁смотрят	-10.611
▁связ	-10.611
▁даром	-10.611
▁умеет	-10.6112
▁едино	-10.6114
кажешь	-10.6115
▁печи	-10.6122
▁целовать	-10.6123
▁беру	-10.613
▁Постой	-10.6133
▁старой	-10.6134
ношен	-10.6142
тывал	-10.6143
▁Бабушка	-10.6146
▁отвращение	-10.6146
▁равнодушно	-10.6146
▁спрятал	-10.6146
▁услыхал	-10.6146
▁чёрт	-10.6147
▁ложь	-10.6147
▁бунт	-10.6149
▁расскажу	-10.6149
▁укор	-10.615
▁остановились	-10.6161
▁тайно	-10.6162
весть	-10.6168
ленным	-10.6179
▁млад	-10.6182
▁тянул	-10.6184
▁каждой	-10.6191
▁историк	-10.6191
▁Помню	-10.6191
▁колеба	-10.6193
▁первым	-10.6195
▁вещей	-10.6196
▁прерыва	-10.6198
озрева	-10.6199
▁молодая	-10.6203
▁начинаю	-10.6203
▁освободи	-10.6224
бежав	-10.6226
▁ответить	-10.6232
▁придется	-10.6234
▁Действительно	-10.6236
▁каждую	-10.6236
▁ненависть	-10.6236
▁половину	-10.6236
▁огня	-10.6236
▁гляди	-10.6237
▁станции	-10.6237
▁толка	-10.624
▁усилие	-10.6242
▁сладко	-10.6247
▁частью	-10.625
▁жесток	-10.6264
▁теперешн	-10.628
▁оставалось	-10.628
▁действу	-10.6284
▁длинные	-10.6299
▁желает	-10.6305
шивал	-10.6314
▁гер	-10.6317
сматривал	-10.632
▁знакомых	-10.6325
▁Сегодня	-10.6325
▁полчаса	-10.6326
▁Лукашка	-10.6328
ment	-10.6331
▁Напротив	-10.6333
▁крыл	-10.6336
тягивая	-10.6348
▁пятна	-10.6351
▁sa	-10.6353
▁мужчины	-10.6358
▁отношениях	-10.6359
▁ламп	-10.6369
▁Константин	-10.6371
▁некоторым	-10.6371
▁упрям	-10.6371
▁овраг	-10.6371
▁детьми	-10.6371
▁Антонович	-10.6373
▁узнает	-10.6374
▁гордо	-10.6375
▁новом	-10.6377
▁войти	-10.6379
▁платком	-10.6381
▁обидел	-10.6381
▁&#224;	-10.6382
▁знаем	-10.6383
▁нигде	-10.6383
▁месяцев	-10.6384
▁ручку	-10.6403
▁ката	-10.6407
▁советник	-10.6408
▁веселый	-10.641
▁занял	-10.6415
▁поддержива	-10.6418
▁соблазн	-10.6421
▁крепости	-10.6422
▁Ваше	-10.6424
▁камер	-10.6425
▁мужем	-10.6429
▁деревья	-10.6429
▁Начал	-10.6449
▁Кол	-10.645
▁Прощай	-10.6451
нимать	-10.6453
просил	-10.6458
▁удивил	-10.6458
▁скрыть	-10.6459
▁болезн	-10.6461
▁негодование	-10.6462
▁возьму	-10.6462
▁ямщик	-10.6464
▁умный	-10.6465
▁дико	-10.6465
▁зашел	-10.6467
▁ласка	-10.6472
близи	-10.6482
▁par	-10.6486
ставляю	-10.6504
▁наказан	-10.6507
▁Кажется	-10.6508
▁сужден	-10.6508
▁сирот	-10.6509
▁Филипповна	-10.6509
▁возраст	-10.651
▁плав	-10.6511
▁Дж	-10.6513
▁Брат	-10.6514
▁est	-10.6517
льц	-10.6518
▁унижен	-10.6521
▁вставая	-10.6523
▁написано	-10.6537
▁il	-10.6538
▁Мой	-10.6543
▁отправля	-10.6548
▁прижал	-10.6549
▁впечатления	-10.6554
▁зеркало	-10.6554
▁крыльца	-10.6554
▁добрым	-10.6558
▁Дед	-10.6568
▁вынес	-10.6572
▁выбор	-10.6573
▁мар	-10.6574
▁сообрази	-10.6574
▁des	-10.6574
▁испугался	-10.6576
▁находя	-10.6577
▁притом	-10.6577
▁пьяный	-10.6588
▁ясны	-10.659
▁tr	-10.6597
▁спрос	-10.6599
▁пир	-10.66
▁внутренне	-10.66
▁Дарья	-10.6601
▁природы	-10.6601
▁архи	-10.6601
▁умолк	-10.6602
▁Черт	-10.6607
▁мучитель	-10.6614
▁поеду	-10.6625
▁деятельность	-10.6626
▁воск	-10.6628
▁крайне	-10.6636
▁зла	-10.6636
▁берет	-10.6637
▁черной	-10.6637
▁хорошие	-10.664
поминаю	-10.6644
▁маха	-10.6644
▁спокойствие	-10.6647
▁нечаянно	-10.6647
▁морщин	-10.6647
▁24	-10.6649
▁Знаешь	-10.6653
▁смеется	-10.6661
▁Муж	-10.6662
▁j	-10.6683
▁мерз	-10.6685
▁рожден	-10.6687
▁чувствовать	-10.6689
▁малейшего	-10.6693
▁порядок	-10.6693
▁увидеть	-10.6693
▁смуща	-10.6695
▁касается	-10.6699
ставляя	-10.6706
ющихся	-10.671
▁середине	-10.6716
ицей	-10.6724
▁me	-10.6736
▁грязи	-10.674
▁Липутин	-10.674
▁можем	-10.674
▁налево	-10.6742
▁выступил	-10.6743
́	-10.6747
▁Андреев	-10.6771
▁Молод	-10.6773
▁Ваш	-10.6779
▁взглянуть	-10.6787
▁Нельзя	-10.6787
▁овладел	-10.6787
▁дыхание	-10.6788
▁прелесть	-10.6788
▁людях	-10.6789
▁обыкновению	-10.6791
▁притворя	-10.6793
▁получить	-10.6794
▁купец	-10.6797
▁Ганя	-10.681
ических	-10.6811
▁билет	-10.6814
▁встретить	-10.6817
▁естественно	-10.6821
▁связи	-10.6822
▁продолжая	-10.6834
▁заседа	-10.6835
▁обижен	-10.6836
▁Федоровна	-10.6837
▁благодари	-10.6839
▁песню	-10.6839
▁рассуди	-10.6839
▁нужен	-10.685
▁пел	-10.6851
▁опуска	-10.6856
▁донес	-10.6865
▁необыкновен	-10.6866
▁невинно	-10.6866
▁заглядыва	-10.6877
▁грязь	-10.6882
▁дождь	-10.6882
▁Бубнов	-10.6882
▁добрые	-10.6901
▁Коли	-10.6903
▁всеобщ	-10.6908
▁бедный	-10.6908
▁отчаяние	-10.6913
▁левой	-10.6913
▁открыты	-10.692
▁Алексея	-10.693
▁Бессемёнов	-10.693
▁Тетерев	-10.693
▁Бельтов	-10.693
▁Довольно	-10.693
▁непонятно	-10.693
▁Маякин	-10.693
▁заранее	-10.6931
писывал	-10.6931
▁наряд	-10.6931
▁толсто	-10.6933
чкой	-10.6938
▁умираю	-10.6944
que	-10.6946
▁богатств	-10.6947
▁опасности	-10.6947
▁приступ	-10.6956
кинув	-10.6957
скою	-10.696
ступать	-10.6964
▁душой	-10.6966
▁столик	-10.6967
▁скверн	-10.6967
рубл	-10.6967
▁охотно	-10.6975
езжая	-10.6978
▁присутствие	-10.6978
▁фабрик	-10.6978
▁момент	-10.6979
▁maman	-10.6979
▁нужда	-10.6979
▁помести	-10.6979
▁мозг	-10.698
▁спасти	-10.6987
▁знакомый	-10.6987
▁свободе	-10.6988
рям	-10.6991
▁случаях	-10.6993
▁сыт	-10.6996
▁сверху	-10.6999
▁удивительн	-10.7002
▁двенадцать	-10.7003
▁люд	-10.7004
▁несправедлив	-10.7004
▁пошл	-10.7007
▁квартире	-10.701
▁Герасим	-10.7027
▁досадно	-10.7027
▁фураж	-10.7027
▁похорон	-10.7027
▁нужна	-10.7028
▁презрение	-10.7028
▁работник	-10.7028
бросил	-10.7032
▁кусок	-10.7037
▁XVI	-10.7041
▁обычно	-10.7043
▁происходило	-10.7044
▁воротился	-10.7049
▁магазин	-10.7075
▁небольшой	-10.7075
▁Наталья	-10.7075
▁Вронского	-10.7075
▁нескольких	-10.7076
▁бере	-10.7082
▁позволил	-10.7083
▁Зина	-10.7087
▁мнению	-10.7087
▁окружен	-10.7089
▁Бес	-10.7109
памят	-10.711
▁обидно	-10.711
ставлю	-10.7111
▁Скажи	-10.7114
▁значительн	-10.7123
▁Сердце	-10.7124
▁учителя	-10.7124
▁требует	-10.7125
▁Именно	-10.7125
▁учиться	-10.7126
▁границу	-10.7127
Ж	-10.7129
▁отворилась	-10.7132
▁утре	-10.7133
▁затих	-10.7133
▁представил	-10.714
▁белом	-10.7147
as	-10.7153
▁возник	-10.7158
шедшего	-10.7172
▁оскорбля	-10.7173
▁засмеялась	-10.7173
помалу	-10.7174
▁будущем	-10.7174
▁бьет	-10.7186
▁понятия	-10.7188
▁сыро	-10.7194
▁домик	-10.7195
▁vi	-10.7196
бежала	-10.7209
▁пестр	-10.7218
▁Генрих	-10.7222
▁Pea	-10.7222
▁догадался	-10.7222
▁кресло	-10.7222
▁высказать	-10.7222
▁поступок	-10.7222
▁отошел	-10.7222
▁отношение	-10.7222
▁пройти	-10.7226
▁Видите	-10.7229
▁девка	-10.7229
▁жаром	-10.7229
▁E	-10.7233
▁горло	-10.7235
▁ужина	-10.7238
▁простил	-10.7241
друг	-10.7248
зывает	-10.7252
▁толпу	-10.726
▁странный	-10.7266
▁боясь	-10.7268
J	-10.7272
▁недоумение	-10.7272
▁бороду	-10.7272
▁камня	-10.7273
▁звали	-10.7273
▁позволит	-10.7275
▁вздумал	-10.7275
▁сахар	-10.7275
▁дров	-10.7282
▁парень	-10.7285
▁покачал	-10.7287
▁улицам	-10.729
▁работал	-10.7296
▁Одним	-10.7301
▁кулаком	-10.7305
▁явно	-10.7309
енькие	-10.7313
15	-10.7321
слушав	-10.7321
▁Ордынов	-10.7322
▁службе	-10.7322
▁Наташу	-10.7322
▁приятель	-10.7322
▁попада	-10.7327
завтра	-10.7328
▁коль	-10.733
ut	-10.7341
▁качеств	-10.7353
▁XI	-10.7371
▁уехать	-10.7372
▁смеялись	-10.7372
▁борода	-10.7375
▁нужд	-10.7382
▁выдумал	-10.7391
▁ногой	-10.7399
слушать	-10.7401
▁Мама	-10.7402
▁обедом	-10.7406
тельнее	-10.7416
▁Влас	-10.7417
▁слыша	-10.7421
▁соглаша	-10.7422
▁хозяев	-10.7422
▁тихим	-10.7422
▁Модест	-10.7422
▁Никифорович	-10.7422
▁юноше	-10.7422
▁деятельности	-10.7423
▁нечист	-10.7424
▁девушку	-10.7425
▁труп	-10.7425
интерес	-10.7428
▁имеют	-10.7429
▁отправил	-10.7436
мысли	-10.744
▁редки	-10.7446
жур	-10.745
▁звал	-10.7452
ступая	-10.7456
▁получен	-10.7457
▁Бол	-10.7468
ошло	-10.747
▁мгновенно	-10.7472
▁полагаю	-10.7473
▁надеюсь	-10.7473
▁неудач	-10.7474
▁грусть	-10.7477
валился	-10.7478
▁оцен	-10.7483
▁дьякон	-10.7487
▁волк	-10.7489
▁водой	-10.7495
▁Пан	-10.7505
▁преступ	-10.7508
▁признал	-10.7514
▁донос	-10.7519
▁доказательств	-10.7523
▁подтвердил	-10.7523
▁изображен	-10.7523
▁небрежно	-10.7523
▁чужой	-10.7523
▁корпус	-10.7523
▁большом	-10.7524
ющиеся	-10.7525
▁облака	-10.7525
▁чужд	-10.7526
▁Вчера	-10.7526
▁числа	-10.7527
▁колонн	-10.7527
▁бедная	-10.7528
▁совесть	-10.7544
▁молчания	-10.7546
▁мод	-10.7547
▁жир	-10.7564
▁краю	-10.7574
▁называем	-10.7574
▁блестел	-10.7574
▁цари	-10.7576
▁беспокоит	-10.7577
▁кухне	-10.7577
▁Видишь	-10.7577
▁меры	-10.7579
▁всяких	-10.7585
▁обратно	-10.759
чё	-10.7596
▁необходимости	-10.7597
▁принимать	-10.7599
▁следил	-10.7605
ченный	-10.7607
▁силами	-10.7608
▁жарко	-10.7613
▁обязанность	-10.7615
ницей	-10.762
▁невыносим	-10.7625
▁профессор	-10.7625
▁клятв	-10.7626
▁неестественн	-10.7626
▁покров	-10.7626
▁усилия	-10.7626
▁Гер	-10.7627
▁поводу	-10.7629
▁устроил	-10.7629
▁пруд	-10.763
▁больших	-10.763
▁офицеров	-10.7641
▁луг	-10.7647
▁вообрази	-10.7647
▁бегал	-10.7648
▁степен	-10.7652
▁молодым	-10.7657
бьет	-10.7659
▁дядю	-10.7674
▁радостью	-10.7675
▁швейцар	-10.7677
▁пункт	-10.7677
▁языком	-10.7677
▁отвернулся	-10.7677
▁чемодан	-10.7677
▁слышу	-10.7677
▁увеличи	-10.7679
▁25	-10.768
▁эдак	-10.7682
II	-10.7683
▁смутно	-10.7684
▁Мед	-10.7685
▁пит	-10.7685
▁долги	-10.7696
везти	-10.7705
▁Анну	-10.7708
.)]	-10.7714
ронил	-10.7716
▁беспрерывно	-10.7722
▁вступил	-10.7729
▁счастия	-10.7729
▁зовут	-10.7729
▁волнении	-10.7729
▁возьмет	-10.7729
▁дружески	-10.7735
▁сук	-10.7749
стям	-10.7752
▁прошли	-10.777
▁Тимофе	-10.7781
▁закр	-10.7782
тупив	-10.7783
▁скорб	-10.7785
▁Тур	-10.7791
▁блюд	-10.7794
▁Никак	-10.7798
тельных	-10.78
▁Элен	-10.7801
▁великий	-10.7802
▁сотни	-10.7803
14	-10.7807
▁добродушно	-10.7815
▁полюби	-10.7827
▁доброго	-10.7829
▁Чертопханов	-10.7833
▁прежнего	-10.7833
▁сопровожда	-10.7833
▁кверху	-10.7833
мейстер	-10.7833
▁кстати	-10.7834
▁услуг	-10.7835
▁23	-10.7836
▁Васильевич	-10.7837
▁подверг	-10.7838
▁знай	-10.784
▁заговор	-10.7841
▁зелено	-10.7841
истый	-10.7843
▁молодости	-10.7845
▁Говорят	-10.7847
▁старушка	-10.7848
▁веселым	-10.7858
▁потянул	-10.7866
ственным	-10.7873
▁Россию	-10.7886
▁воспоминание	-10.7886
▁изобража	-10.7886
▁посреди	-10.7886
▁Сережа	-10.7886
писывать	-10.7886
▁деньгами	-10.7886
▁сперва	-10.7886
▁целью	-10.789
▁du	-10.7892
▁купца	-10.7899
вернувшись	-10.7909
▁мук	-10.7916
▁милость	-10.792
▁играет	-10.793
▁издали	-10.793
▁Эк	-10.7931
k	-10.7939
▁друзей	-10.7939
▁тюрьме	-10.7939
▁улыбку	-10.7939
▁главнокомандующ	-10.7939
▁приглашен	-10.7939
▁Ольга	-10.7939
▁ощуща	-10.7939
▁лениво	-10.7941
▁женить	-10.795
правлял	-10.7954
▁молчит	-10.796
▁удивился	-10.7964
▁Всяк	-10.7964
▁полз	-10.7965
слушайте	-10.7967
▁Ер	-10.7967
▁плох	-10.7968
ter	-10.7968
▁здрав	-10.7973
▁махнул	-10.7974
▁Полно	-10.7974
ственный	-10.7989
▁Прокофьевна	-10.7992
▁шепнул	-10.7992
▁Казалось	-10.7992
▁выскочил	-10.7992
▁процесс	-10.7992
▁последних	-10.7992
▁состоит	-10.7992
▁помилуй	-10.7992
▁ослаб	-10.7992
▁визит	-10.7996
▁общего	-10.7998
▁девять	-10.7998
▁капитал	-10.7999
авно	-10.8001
▁взад	-10.8001
ейший	-10.8005
▁au	-10.8011
▁нелепо	-10.8023
▁любовник	-10.8023
▁поставлен	-10.8028
▁странные	-10.803
▁добрая	-10.803
▁леп	-10.8035
ньем	-10.804
▁Пожалуй	-10.8041
▁воспользова	-10.8045
▁кафтан	-10.8045
▁Солдат	-10.8045
▁умоляю	-10.8046
▁пуще	-10.8047
▁выехал	-10.8048
нские	-10.8068
▁берез	-10.8068
▁прощай	-10.8076
▁таинственно	-10.8089
che	-10.8089
нских	-10.8091
▁воротник	-10.8096
▁сыр	-10.8098
▁Каждый	-10.8099
▁групп	-10.8099
▁происходит	-10.8099
▁Маслова	-10.8099
▁поймет	-10.81
▁грамот	-10.81
▁случаю	-10.81
▁положен	-10.8105
mo	-10.8106
▁колокол	-10.8115
im	-10.8115
▁пройдет	-10.8118
▁исполнить	-10.812
тельную	-10.8121
▁священн	-10.8132
▁воров	-10.8137
▁превосходн	-10.8153
▁председатель	-10.8153
▁Извините	-10.8153
▁серебряны	-10.8153
▁следовало	-10.8153
▁марш	-10.8154
▁произноси	-10.8155
▁прошлого	-10.8161
▁границей	-10.8161
▁смеша	-10.8163
▁казни	-10.8167
▁спустил	-10.8177
▁Послушайте	-10.8179
▁мух	-10.818
движен	-10.8187
▁отдавал	-10.8203
▁выступ	-10.8205
▁некоторых	-10.8208
▁Рыбин	-10.8208
▁лестницы	-10.8208
▁Вообще	-10.8208
▁человечества	-10.8208
▁стекла	-10.8208
▁извини	-10.8213
правления	-10.8214
▁свидетельств	-10.8217
▁листья	-10.8225
кладывал	-10.8235
▁поднялась	-10.8235
▁господь	-10.8236
▁ученик	-10.8238
серебр	-10.8259
▁столб	-10.8261
▁сударыня	-10.8262
▁копеек	-10.8262
▁исторически	-10.8262
▁26	-10.8265
▁вопросительно	-10.8266
▁отворя	-10.8269
▁тонким	-10.8272
▁визг	-10.8272
нравств	-10.8273
▁Мужик	-10.8274
▁конча	-10.8274
▁22	-10.8274
12	-10.8303
черк	-10.8312
▁стоять	-10.8312
еньким	-10.8312
бирая	-10.8314
▁преступник	-10.8317
O	-10.8317
▁Городничий	-10.8317
▁Должно	-10.8317
▁Христос	-10.8317
▁беспокойно	-10.8317
▁Надежд	-10.8317
▁познакомил	-10.8317
▁болен	-10.8317
▁захочет	-10.8317
▁мещан	-10.8318
▁поразило	-10.8318
▁шагах	-10.8319
▁избави	-10.8319
▁имея	-10.8326
▁хорошая	-10.8338
▁Больше	-10.834
▁уйду	-10.8343
▁глядит	-10.8345
▁устроить	-10.8351
▁болот	-10.8353
▁понятно	-10.8359
пускать	-10.836
▁Особенно	-10.8372
▁службы	-10.8372
▁торопясь	-10.8372
▁церковн	-10.8372
▁пешком	-10.8372
▁скромн	-10.8375
▁целым	-10.838
▁кончилось	-10.8385
▁божеств	-10.8389
▁написан	-10.8396
▁двенадцат	-10.8399
шедший	-10.8402
▁морд	-10.8404
▁наивно	-10.8409
едешь	-10.8412
▁прожил	-10.8413
▁страниц	-10.8418
▁глупость	-10.8419
▁Лук	-10.8419
▁Варенька	-10.8428
▁подъехал	-10.8428
▁раздражительн	-10.8428
▁безмолв	-10.8428
▁документ	-10.8428
▁мятеж	-10.8428
▁погреб	-10.843
капитан	-10.844
хвачен	-10.8447
▁скромно	-10.848
▁хозяйство	-10.8484
▁сундук	-10.8484
▁кинжал	-10.8484
▁недолго	-10.8484
▁спиной	-10.8486
▁Будь	-10.8486
▁186	-10.8489
▁служи	-10.8489
▁мамаша	-10.8494
▁приблизил	-10.85
▁смотрю	-10.8506
▁лишен	-10.8513
▁покрыв	-10.8515
▁трубку	-10.8518
un	-10.852
Люб	-10.8522
▁кормил	-10.8523
▁очередь	-10.854
▁помолчав	-10.854
▁Жизнь	-10.854
▁приглаша	-10.854
▁скандал	-10.854
▁недалеко	-10.854
▁сенях	-10.854
▁ослеп	-10.854
▁оправдыва	-10.8541
▁любопытство	-10.8543
▁73	-10.8544
▁B	-10.8549
▁суров	-10.8549
▁становился	-10.8551
▁затвор	-10.8557
▁царе	-10.856
слышал	-10.8564
поминает	-10.8566
▁согну	-10.8567
▁сесть	-10.8567
▁узнаю	-10.8569
▁красные	-10.8569
▁душевно	-10.857
▁царство	-10.8574
ire	-10.8583
▁строк	-10.859
ier	-10.8595
▁клянусь	-10.8596
▁благородие	-10.8596
▁убийц	-10.8597
▁бархат	-10.8597
▁вскоре	-10.8597
▁объятия	-10.8597
▁мрачны	-10.8598
▁уверяю	-10.8599
▁изящн	-10.8599
▁задыхаясь	-10.8601
▁особенным	-10.8604
▁ворон	-10.8606
▁покачивая	-10.8606
▁идеи	-10.8607
▁улыбн	-10.8608
▁признаться	-10.8612
▁Молодой	-10.8615
▁песня	-10.8616
▁прислал	-10.8616
▁намерения	-10.8618
▁страшный	-10.8629
тирал	-10.863
16	-10.8631
to	-10.8632
чишь	-10.8634
▁плачет	-10.8635
▁расспрашива	-10.8642
H	-10.8653
▁Урбенин	-10.8653
▁поворачива	-10.8653
▁положим	-10.8653
▁Андрею	-10.8654
▁Голос	-10.8654
▁расстроен	-10.8654
▁утомлен	-10.8655
▁палец	-10.8663
▁белый	-10.8664
▁начнет	-10.8669
▁лавке	-10.8672
▁смол	-10.8677
▁гордости	-10.8679
▁скорей	-10.8681
везли	-10.8697
▁предел	-10.8705
▁анекдот	-10.871
▁мрамор	-10.871
▁объяснения	-10.871
▁отвечает	-10.871
▁предчувствовал	-10.871
▁присутствии	-10.871
▁нестерпим	-10.871
▁напоминал	-10.871
▁послать	-10.871
▁дерзк	-10.871
▁увидишь	-10.8711
▁министр	-10.8711
▁Нужно	-10.8712
▁Давно	-10.8716
тянув	-10.8723
▁сердечн	-10.8726
▁четверть	-10.8727
▁красный	-10.8746
▁испытыва	-10.8746
▁Давай	-10.8751
вард	-10.8757
стоял	-10.876
ложение	-10.8762
▁ребенком	-10.8768
▁тридцати	-10.8768
▁вежливо	-10.8768
▁удосто	-10.8768
▁костюм	-10.8768
брался	-10.8779
▁сообщить	-10.8779
Никола	-10.8792
нском	-10.8795
end	-10.8801
▁количеств	-10.8806
▁приближ	-10.8806
▁облада	-10.8815
▁Ардалион	-10.8826
▁действия	-10.8826
▁бледна	-10.8826
▁сенатор	-10.8826
▁покамест	-10.8826
▁Тихон	-10.8826
▁pour	-10.8827
▁угрожа	-10.8827
▁отдыха	-10.8827
▁смирен	-10.8828
▁Толстого	-10.8831
▁сознания	-10.8835
▁старше	-10.884
▁правды	-10.8842
▁женился	-10.8847
▁успев	-10.8852
▁глух	-10.8856
▁qui	-10.8859
▁убежал	-10.8859
смотреть	-10.886
▁возвращен	-10.8884
▁замечая	-10.8884
▁любопытно	-10.8884
▁поминутно	-10.8884
▁Спасибо	-10.8884
▁звучал	-10.8884
▁благодарю	-10.8884
▁добавил	-10.8884
▁свидание	-10.8884
▁прощения	-10.8884
▁Разговор	-10.8884
▁занавес	-10.8884
▁Фомы	-10.8885
▁заявил	-10.8885
▁находится	-10.8886
▁навеки	-10.8887
▁дешев	-10.8888
▁очутился	-10.889
▁Странно	-10.8894
▁искус	-10.8896
▁сложен	-10.8911
▁духовно	-10.8914
▁Тро	-10.8924
▁Ma	-10.8929
▁юн	-10.8929
временно	-10.8936
▁Анатоль	-10.8942
▁аккуратн	-10.8942
▁красоты	-10.8942
▁половины	-10.8942
▁бессмерт	-10.8942
▁тетрад	-10.8943
▁каприз	-10.8943
▁маменька	-10.8943
▁com	-10.8944
▁кротко	-10.8945
▁фигуры	-10.8949
▁купить	-10.8951
▁оставался	-10.8951
▁число	-10.8952
▁общем	-10.8954
▁белье	-10.8956
▁маг	-10.8959
▁границ	-10.8976
▁задумчив	-10.8982
▁создан	-10.8983
▁товар	-10.8991
▁Багратион	-10.9001
▁Лучше	-10.9001
▁взвизг	-10.9001
▁княжны	-10.9001
▁тишина	-10.9001
▁толстый	-10.9001
▁шинель	-10.9001
▁помнишь	-10.9001
▁Дядя	-10.9001
▁кричать	-10.9001
▁оказался	-10.9001
▁никуда	-10.9002
▁приготовил	-10.9007
▁хохотал	-10.901
▁нахмурился	-10.9011
ственные	-10.9018
ческую	-10.9025
▁21	-10.9028
▁принимает	-10.9038
▁испытал	-10.9047
бегая	-10.9052
▁неопределенн	-10.906
▁вчерашнего	-10.906
▁Ренаты	-10.906
▁посеща	-10.906
▁честный	-10.906
▁Графиня	-10.906
▁смеялась	-10.9061
▁бояться	-10.9061
▁мешает	-10.9061
▁губернск	-10.9061
▁стесня	-10.9062
▁сложил	-10.9064
▁уверял	-10.9071
X	-10.9072
▁дворник	-10.908
▁приходилось	-10.908
▁зубами	-10.908
▁занятия	-10.9097
▁рыже	-10.9102
▁Мир	-10.911
▁распоряди	-10.912
▁доказать	-10.912
▁цыган	-10.912
▁Кстати	-10.912
▁возвышен	-10.912
▁свободу	-10.912
▁поручик	-10.912
▁пригласил	-10.9121
▁поэтому	-10.9125
Про	-10.9129
▁баран	-10.9131
▁обеих	-10.9134
▁времен	-10.9137
▁естественн	-10.9137
▁выслушал	-10.9141
евского	-10.9151
▁любя	-10.9154
▁лавку	-10.9156
▁ночам	-10.916
um	-10.916
бежать	-10.9165
▁Жена	-10.9167
eux	-10.9177
▁озлоблен	-10.918
▁настойчиво	-10.918
▁человеческого	-10.918
▁Ивановны	-10.918
▁существует	-10.9182
тягивал	-10.9182
▁лжи	-10.9183
▁нравилось	-10.9186
▁30	-10.9194
▁скверно	-10.9197
▁валя	-10.9204
▁рассеянно	-10.9204
▁разрыв	-10.9217
▁дворянин	-10.9219
темн	-10.9234
мог	-10.9235
езжает	-10.9238
▁Грушенька	-10.924
▁Емельян	-10.924
▁Оренбург	-10.924
▁беспокойтесь	-10.924
▁впоследствии	-10.924
▁прекрасна	-10.924
▁приехать	-10.924
▁кашля	-10.924
▁опозда	-10.924
▁слушаю	-10.924
▁прикажете	-10.9241
▁череп	-10.9241
▁Лаевский	-10.9241
▁Жилин	-10.9242
▁вдоль	-10.9243
▁дверям	-10.9243
▁Пепел	-10.9244
▁спешил	-10.9246
▁длинными	-10.9249
▁Афанасий	-10.925
▁назвать	-10.9251
▁угрюм	-10.9251
▁дрожащим	-10.928
▁правде	-10.9296
▁comme	-10.93
▁досадой	-10.9301
▁действовать	-10.9301
▁хохол	-10.9301
▁увидев	-10.9301
▁размахива	-10.9302
▁вздохнув	-10.9303
▁спине	-10.9304
▁требую	-10.9305
▁Стой	-10.9318
ine	-10.9327
▁отврати	-10.9342
▁восторженно	-10.9352
w	-10.9362
▁Главное	-10.9362
▁вспоминая	-10.9362
▁нетерпением	-10.9362
▁изволили	-10.9362
▁обнажен	-10.9362
▁ладонь	-10.9363
▁последовал	-10.9363
▁выпить	-10.9365
▁гулять	-10.9365
▁Сав	-10.9365
▁cher	-10.9366
▁отдохнуть	-10.9367
▁лукав	-10.9367
▁усилива	-10.9367
правлять	-10.9368
▁лампад	-10.9368
▁французский	-10.9377
▁будьте	-10.9383
▁война	-10.9383
казано	-10.9389
▁середин	-10.9393
▁благ	-10.9405
▁обход	-10.9407
меется	-10.9415
▁неприлично	-10.9423
▁последнюю	-10.9423
▁критик	-10.9423
▁потребовал	-10.9423
▁эпох	-10.9423
▁обернулся	-10.9424
▁лед	-10.9426
▁взаимн	-10.9426
▁27	-10.9426
▁раскрыт	-10.9427
▁принимаю	-10.9433
▁порох	-10.9435
хотя	-10.9436
▁VI	-10.9452
▁круто	-10.9452
▁молиться	-10.9461
▁решилась	-10.947
▁скрыт	-10.9475
▁пробежал	-10.9478
▁рубля	-10.9481
▁Васин	-10.9482
R	-10.9485
▁воображении	-10.9485
▁порядочно	-10.9485
▁принадлежал	-10.9485
▁лестницу	-10.9485
▁терпеть	-10.9485
▁август	-10.9485
▁адрес	-10.9485
▁предлагал	-10.9485
▁таинственны	-10.9485
▁одеяло	-10.949
▁арест	-10.949
▁слушай	-10.9491
▁умрет	-10.9493
ительное	-10.9495
▁ветра	-10.9496
полз	-10.9496
▁решения	-10.9504
▁брит	-10.9507
▁пронз	-10.9513
▁общее	-10.9514
▁убран	-10.9519
▁умру	-10.9527
▁беспоряд	-10.9534
▁тяжелым	-10.954
▁отсутствие	-10.9547
▁разбудил	-10.9547
▁мешок	-10.9547
▁наедине	-10.9547
▁сражение	-10.9548
▁кабак	-10.9548
▁остальные	-10.9551
▁ряб	-10.9552
▁ушли	-10.9554
▁покрыты	-10.9555
x	-10.9556
▁стоило	-10.9556
смотрев	-10.9556
▁барышня	-10.9556
евский	-10.9561
▁произво	-10.9572
▁грозно	-10.9573
хватить	-10.9578
▁высказыва	-10.9591
▁толкнул	-10.9599
▁Помилуйте	-10.9609
▁колокольчик	-10.9609
▁маленького	-10.9609
▁недоверчиво	-10.9609
▁осмели	-10.961
▁приятеля	-10.961
▁перешел	-10.961
▁связь	-10.961
▁устроен	-10.9612
▁чашку	-10.9614
man	-10.9615
ическом	-10.9618
▁предложен	-10.9628
перед	-10.963
▁совершил	-10.9635
дневн	-10.9639
▁покое	-10.9652
▁Дмитриев	-10.9658
▁событий	-10.9672
▁карету	-10.9673
▁сильный	-10.9675
▁необходимость	-10.9675
▁отказаться	-10.9676
▁28	-10.9676
ставлять	-10.968
▁тревожно	-10.9682
шествие	-10.9684
▁означ	-10.9684
▁здоровы	-10.9694
▁Данило	-10.9709
учив	-10.971
▁объясни	-10.9716
▁Вечером	-10.9735
▁многим	-10.9735
▁Lise	-10.9735
▁Платон	-10.9735
▁Чувств	-10.9735
▁ожидать	-10.9736
▁Около	-10.9736
освящен	-10.9737
▁картуз	-10.9737
▁приедет	-10.9737
▁позволял	-10.974
▁отчаянии	-10.974
▁Марью	-10.9744
▁удивлению	-10.9745
▁показались	-10.9749
▁Спас	-10.9751
▁узел	-10.9752
нейших	-10.9762
человечески	-10.9766
▁заступ	-10.9772
▁черный	-10.9776
▁идей	-10.9784
соедин	-10.9784
▁Куп	-10.9785
and	-10.979
▁Челкаш	-10.9799
▁кирпич	-10.9799
▁Европе	-10.9799
▁tout	-10.9799
▁зрения	-10.9799
▁Вспомни	-10.9799
▁милостивый	-10.9801
▁девочку	-10.9804
▁плащ	-10.9808
бесчест	-10.981
▁пчел	-10.9816
▁повар	-10.9832
▁одетый	-10.9833
▁немало	-10.9835
▁перебив	-10.9837
▁бедного	-10.9853
▁сунул	-10.9855
▁рассыпа	-10.9857
▁Крестьян	-10.9863
▁познакомиться	-10.9863
▁белокур	-10.9863
▁величествен	-10.9863
▁тихий	-10.9863
▁пускай	-10.9863
▁разнообразн	-10.9864
▁настоящее	-10.9865
▁сигар	-10.9867
▁загорел	-10.9867
▁мечты	-10.9869
▁своя	-10.9872
▁временем	-10.9873
▁переменил	-10.9882
офицер	-10.9884
▁щелк	-10.9887
считыва	-10.989
▁запута	-10.9891
▁вспомнить	-10.9892
▁строгим	-10.9901
слышав	-10.9919
вязать	-10.9922
▁Сибирь	-10.9928
▁постепенно	-10.9928
▁привязан	-10.9928
▁Бородин	-10.9928
▁дяди	-10.9928
▁правильно	-10.9931
▁явилась	-10.9932
▁одоле	-10.9932
доступ	-10.9933
▁сумел	-10.9934
▁прожив	-10.9954
▁страшная	-10.9955
▁отзыв	-10.997
▁пьяниц	-10.9978
▁призыв	-10.9978
▁Настенька	-10.9993
▁бутылку	-10.9993
▁источник	-10.9993
▁самоуверен	-10.9993
▁Возьми	-10.9993
▁замолк	-10.9993
▁читает	-10.9994
▁Марфа	-10.9996
▁Михайлович	-10.9999
▁воспита	-11.0002
▁кончить	-11.0003
▁жалости	-11.0005
▁дяде	-11.0009
▁монастырь	-11.0014
▁прощайте	-11.0022
▁Фому	-11.003
▁Черн	-11.0032
▁con	-11.0035
ышн	-11.0036
▁ищет	-11.004
▁No	-11.004
▁Россия	-11.0058
▁оскорбил	-11.0058
▁потихоньку	-11.0058
▁противоположно	-11.0058
▁отталкива	-11.0058
▁смягч	-11.0058
▁огромным	-11.0058
▁возбуди	-11.0058
▁период	-11.0058
▁переставая	-11.0061
▁приказания	-11.0061
▁значения	-11.0061
▁вставал	-11.0064
▁капель	-11.0065
полнил	-11.0067
▁соединен	-11.0068
глаз	-11.0072
будь	-11.0073
▁плод	-11.0076
▁увидя	-11.0084
▁семейство	-11.0101
▁une	-11.0103
▁завел	-11.011
▁прибыл	-11.0122
▁острог	-11.0123
▁Алпатыч	-11.0124
▁европейск	-11.0124
▁захохотал	-11.0124
▁сконфуз	-11.0124
▁судорожно	-11.0124
▁утверди	-11.0124
английски	-11.0124
▁приобрет	-11.0124
▁отчаянно	-11.0126
▁крепость	-11.0126
▁Андреевич	-11.0127
▁будущее	-11.013
▁заклад	-11.0131
▁удовлетворен	-11.0133
▁служит	-11.0175
▁козл	-11.0179
▁вольно	-11.018
▁поговори	-11.0182
▁Бонапарт	-11.019
▁Хозяин	-11.019
▁инстинкт	-11.019
▁экзамен	-11.019
▁наступил	-11.019
▁наслажда	-11.019
▁шапки	-11.019
▁царь	-11.019
▁очарова	-11.019
▁воскресенье	-11.0191
▁лакея	-11.0191
▁работе	-11.0192
▁именем	-11.0194
▁крылья	-11.0195
▁обязанности	-11.0195
▁сестре	-11.0196
▁лыс	-11.0197
▁концов	-11.0202
▁войне	-11.0206
▁VII	-11.0217
▁удовлетвори	-11.0225
правляя	-11.023
ступает	-11.0233
▁справедлив	-11.0252
▁Маврики	-11.0257
▁неизбежн	-11.0257
▁ощущение	-11.0257
▁Август	-11.0257
▁некрасив	-11.0257
▁Ежов	-11.0258
▁поступка	-11.0258
▁русском	-11.0258
▁краснея	-11.0258
▁шпаг	-11.026
▁недель	-11.0271
▁пью	-11.0272
▁необходимы	-11.0278
Ф	-11.028
▁подобных	-11.0282
▁судья	-11.0284
▁Толст	-11.0303
▁покраснев	-11.0324
▁охватил	-11.0324
▁спасибо	-11.0324
▁независимо	-11.0325
▁интересовал	-11.0325
▁производил	-11.0326
▁игры	-11.033
слал	-11.0331
▁достать	-11.0333
▁переднюю	-11.034
▁тетка	-11.0341
▁тяжелые	-11.0349
▁хорошим	-11.0366
▁союз	-11.0376
вшею	-11.0383
ождение	-11.0391
ó	-11.0391
▁Воронцов	-11.0391
▁Солнце	-11.0391
▁неприятеля	-11.0391
▁рассуждать	-11.0391
▁прежних	-11.0391
▁позабыл	-11.0391
▁прежнее	-11.0392
▁царя	-11.0392
▁Прошло	-11.0392
▁сестру	-11.0392
▁благогове	-11.0392
▁Молчи	-11.0393
▁плут	-11.0395
▁отказался	-11.0396
▁начиная	-11.0402
▁выбрал	-11.0407
▁запас	-11.0428
Так	-11.0429
▁исход	-11.0453
кладывать	-11.0453
▁мелко	-11.0459
▁враждебно	-11.0459
▁невероятн	-11.0459
▁деликат	-11.0459
▁зверь	-11.046
гвозд	-11.0461
▁полтора	-11.0461
▁(«	-11.0461
▁зиму	-11.0461
бивать	-11.0464
▁вернуться	-11.0467
▁подозрени	-11.0471
▁сильным	-11.0472
ведут	-11.0474
▁чтение	-11.0476
▁верстах	-11.048
▁жалел	-11.0482
▁злобы	-11.0488
сматривая	-11.0498
▁прятал	-11.0499
▁поздне	-11.0502
▁Послушай	-11.0506
▁напомнил	-11.0515
▁сделав	-11.0517
▁успокоить	-11.0521
▁камердинер	-11.0528
▁ожидании	-11.0528
▁ружья	-11.0528
▁револьвер	-11.0528
▁бородой	-11.0528
▁сказывал	-11.0528
▁Филиппович	-11.0529
▁Ефимыч	-11.053
▁встать	-11.0539
▁французского	-11.0544
▁пушк	-11.0558
▁Говорил	-11.0564
▁XXI	-11.0573
▁отнес	-11.0591
▁собеседник	-11.0597
▁преувелич	-11.0597
▁утоп	-11.0597
▁следующий	-11.0597
▁замеша	-11.0597
▁неприятны	-11.0597
▁злодей	-11.0597
▁называется	-11.0597
▁чужие	-11.0597
▁Мысль	-11.0597
▁следователь	-11.0599
▁развива	-11.0599
▁протест	-11.0603
▁потолк	-11.0603
▁понравилось	-11.0606
▁молодость	-11.0613
▁понес	-11.0614
▁неподвижны	-11.0616
▁сказан	-11.0616
▁мертвец	-11.0619
▁Чуд	-11.0621
▁подавая	-11.0625
▁изменить	-11.0629
▁грош	-11.063
▁открыть	-11.063
▁получал	-11.0633
▁черных	-11.0634
смеял	-11.0641
говорив	-11.0661
строить	-11.0665
▁Екатерин	-11.0666
▁Швейцар	-11.0666
▁княгини	-11.0666
▁несчастие	-11.0666
▁восхищен	-11.0666
▁гармони	-11.0666
▁кресле	-11.0666
▁дочерью	-11.0666
▁половине	-11.0666
▁ненавидел	-11.0667
▁Француз	-11.0667
▁музыкант	-11.0667
▁Погоди	-11.0667
▁задыха	-11.0668
▁недовольны	-11.0668
▁подумай	-11.068
▁любезно	-11.0681
▁останавливаясь	-11.0683
служил	-11.0701
округ	-11.0714
видел	-11.0726
▁советовал	-11.0727
▁легкомыслен	-11.0736
▁неприятель	-11.0736
▁ожесточ	-11.0736
▁рассердился	-11.0736
▁фальшив	-11.0736
▁русская	-11.0736
▁благодаря	-11.0736
▁ротмистр	-11.0736
▁торчал	-11.0737
пираясь	-11.0739
▁Молча	-11.0739
▁лучшие	-11.074
▁настоящий	-11.0741
▁казаться	-11.0741
▁отчаяния	-11.0741
▁состояния	-11.0742
▁получив	-11.0745
▁Облонск	-11.0747
▁является	-11.075
▁Барон	-11.0751
▁сдержива	-11.0752
▁писан	-11.0763
довольство	-11.0772
брошен	-11.0787
1)	-11.0792
бирай	-11.0802
▁найду	-11.0802
▁Свияжск	-11.0807
▁поглядывая	-11.0807
▁чудовищ	-11.0807
▁тщательно	-11.0807
литературн	-11.0807
▁действовал	-11.0807
▁отрывист	-11.0807
▁Гляди	-11.0807
▁физически	-11.0807
▁подчиня	-11.0809
▁спинк	-11.0811
▁допрос	-11.0813
▁становилась	-11.0814
▁шляпе	-11.0815
2)	-11.0822
▁случая	-11.0856
очных	-11.0856
▁облако	-11.0861
і	-11.0878
▁Лебядкин	-11.0878
▁Офицер	-11.0878
▁бессмысленно	-11.0878
▁некоторого	-11.0878
▁соображения	-11.0878
▁тротуар	-11.0878
▁стихотвор	-11.0878
▁объяснял	-11.0878
▁Здравствуйте	-11.0878
▁оружие	-11.0878
▁шинели	-11.0878
▁Сатин	-11.0878
▁извольте	-11.0878
▁Каренин	-11.0878
▁семейно	-11.0878
▁Ильин	-11.088
▁усмехаясь	-11.088
▁Фоме	-11.0881
▁дву	-11.0883
▁вчерашни	-11.0887
йдите	-11.0893
▁всякие	-11.0897
▁Просто	-11.0899
▁праздн	-11.09
▁просидел	-11.0905
ступления	-11.092
▁бойко	-11.0932
▁скрывать	-11.0936
G	-11.0949
▁пуговиц	-11.0949
▁упомяну	-11.0949
▁объяснять	-11.0949
▁армию	-11.0949
▁барабан	-11.0949
▁империи	-11.0949
▁следующее	-11.0949
▁мошенник	-11.0949
следствие	-11.0949
▁судеб	-11.095
▁нынешне	-11.0952
▁угроз	-11.0953
▁кратко	-11.0953
▁измучен	-11.0954
▁присоедини	-11.096
▁безумно	-11.0967
▁рассказывает	-11.0983
▁пустынн	-11.0983
▁раскрыв	-11.0994
▁сознавал	-11.1008
▁необходим	-11.1014
▁Растопчин	-11.1021
▁пятидесяти	-11.1021
▁панталон	-11.1021
▁Батюшк	-11.1021
▁надеялся	-11.1021
▁крепостн	-11.1021
▁называют	-11.1021
▁возвыша	-11.1021
▁преимущественно	-11.1022
▁запад	-11.1023
подвиж	-11.1035
▁поднес	-11.1037
▁расспрашивать	-11.1041
▁смотритель	-11.1045
думает	-11.1052
кажите	-11.1063
ангел	-11.1068
печатан	-11.107
▁вяз	-11.1074
▁Marie	-11.109
T	-11.1093
▁Дмитрич	-11.1093
▁мальчишка	-11.1093
▁сумасшедший	-11.1093
▁улыбки	-11.1093
▁молодежь	-11.1093
▁привычке	-11.1093
▁майор	-11.1094
▁жутко	-11.1094
▁партии	-11.1094
▁бежит	-11.1094
▁огни	-11.1096
▁29	-11.1097
▁своё	-11.1099
▁казач	-11.1112
способ	-11.1121
▁густым	-11.1124
▁чувствительн	-11.1125
▁козак	-11.1129
▁нехорош	-11.1132
сылал	-11.1132
▁заходил	-11.1147
▁рассеян	-11.1148
▁пальца	-11.1154
унд	-11.1161
&#234;	-11.1166
▁необычайн	-11.1166
▁Кавказ	-11.1166
▁воспоминаний	-11.1166
▁хваста	-11.1166
▁Мальчик	-11.1166
▁поскорей	-11.1166
▁свиреп	-11.1167
▁ездить	-11.1167
▁пустяки	-11.1167
▁буфет	-11.1167
▁кареты	-11.1167
▁позади	-11.1168
▁Люби	-11.1168
▁подозревал	-11.1169
▁опрокину	-11.117
усерд	-11.117
▁храни	-11.1171
▁девочки	-11.1172
▁расположении	-11.1174
▁караул	-11.1183
▁жалею	-11.1187
▁искренне	-11.1188
▁оригинальн	-11.124
▁Совсем	-11.124
▁судьбу	-11.124
▁прежней	-11.124
▁учтиво	-11.124
▁зависит	-11.124
▁половина	-11.124
▁клевет	-11.124
▁рукопис	-11.1241
▁Чуб	-11.1245
▁ami	-11.1248
▁украл	-11.1263
летела	-11.1274
ien	-11.1288
▁Василиса	-11.1314
▁Дмитрия	-11.1314
▁Достоевский	-11.1314
▁княжне	-11.1314
▁комендант	-11.1314
▁маленьких	-11.1314
▁настолько	-11.1314
▁несчастна	-11.1314
▁помощник	-11.1314
▁предупрежд	-11.1314
▁тюрьму	-11.1314
▁книжки	-11.1314
▁Звезд	-11.1314
▁высокая	-11.1314
▁прежние	-11.1314
▁страдание	-11.1314
▁удач	-11.1314
▁добродетель	-11.1315
▁героя	-11.1316
▁камни	-11.1316
▁выпустил	-11.1319
▁рабочих	-11.132
▁Il	-11.1323
▁Будет	-11.1323
▁неясно	-11.1327
▁вывел	-11.1331
▁рассвет	-11.1336
▁треск	-11.1346
▁подавал	-11.1361
▁груз	-11.1371
▁сорвал	-11.1381
▁Круциферск	-11.1389
▁Самойленко	-11.1389
▁воображал	-11.1389
▁негромко	-11.1389
▁облокоти	-11.1389
▁объяснение	-11.1389
▁результат	-11.1389
▁слышишь	-11.1389
▁Здоров	-11.1389
▁порядка	-11.1389
▁участвовал	-11.1389
▁широким	-11.1389
▁тяжесть	-11.1389
▁масон	-11.1391
махнул	-11.1393
▁завяз	-11.1405
▁трон	-11.1424
▁торжество	-11.1451
▁способность	-11.1461
▁Яковлевич	-11.1464
▁наполнял	-11.1464
▁сохраня	-11.1464
▁роскошн	-11.1464
▁ночевать	-11.1464
▁тягот	-11.1465
▁поймал	-11.1466
▁тише	-11.1466
▁оставлен	-11.1473
▁облич	-11.1489
▁bon	-11.1521
▁восклицал	-11.154
▁неохотно	-11.154
▁положительно	-11.154
▁уважения	-11.154
▁событие	-11.154
▁высоких	-11.154
▁маленьком	-11.154
▁кружев	-11.154
▁Голова	-11.154
▁родителя	-11.154
▁прочесть	-11.154
▁матрос	-11.1541
ланд	-11.1542
▁сердитесь	-11.1544
▁трезв	-11.1544
▁восьми	-11.1545
▁Пожалуйста	-11.1546
▁тонкие	-11.1547
▁торжественн	-11.1576
▁обрыв	-11.1578
▁вскрик	-11.1588
▁Прав	-11.1593
▁Княгиня	-11.1616
▁Прасковья	-11.1616
▁воображение	-11.1616
▁понемногу	-11.1616
▁галстук	-11.1616
▁простодушн	-11.1616
▁установи	-11.1616
▁Je	-11.1616
▁доложил	-11.1616
▁тулуп	-11.1617
▁мадам	-11.1617
▁второго	-11.1618
бегать	-11.1618
▁Добро	-11.1618
▁изумлением	-11.1621
▁Алеше	-11.1627
▁дошел	-11.163
▁маме	-11.1635
▁римск	-11.164
▁парад	-11.1644
▁аристократ	-11.1662
▁жизн	-11.1665
▁насмешлив	-11.1665
▁деятель	-11.1668
▁признать	-11.1672
▁спросит	-11.168
▁уходя	-11.1682
▁подбежал	-11.1684
ишко	-11.1692
▁dans	-11.1693
▁nous	-11.1693
▁ожидания	-11.1693
▁Григорьев	-11.1693
▁Признаюсь	-11.1693
▁крокодил	-11.1693
▁ненависти	-11.1693
▁башмак	-11.1693
▁поцеловать	-11.1693
▁Сергеевна	-11.1693
▁настаивал	-11.1693
▁преступление	-11.1694
▁Слава	-11.1694
▁полицейск	-11.1695
Прекрасн	-11.1695
▁благослови	-11.1697
▁стрелять	-11.1699
▁ворчал	-11.17
▁ресниц	-11.1702
▁татарин	-11.1702
▁тонкий	-11.1705
▁бросив	-11.1706
▁Стол	-11.1747
▁Красн	-11.1761
▁перекрестил	-11.1763
▁Грациан	-11.177
▁дуэль	-11.177
▁недоумении	-11.177
▁фланг	-11.177
▁борьбы	-11.177
▁запрещен	-11.177
▁кончится	-11.177
▁умолял	-11.177
▁кухни	-11.1771
емьдесят	-11.1771
▁шкаф	-11.1772
▁угадал	-11.1774
▁деревьев	-11.1777
▁правдив	-11.178
▁осмотр	-11.178
▁ругал	-11.178
▁отверг	-11.1783
▁вершин	-11.1785
▁праздно	-11.1801
▁царств	-11.1802
прятать	-11.182
ille	-11.1822
▁отража	-11.1824
▁бакенбард	-11.1848
▁защитник	-11.1849
▁Простите	-11.1849
▁растеря	-11.1849
▁пахло	-11.1849
▁Всю	-11.186
▁Пошел	-11.1861
▁достойны	-11.1869
▁Сын	-11.1871
Все	-11.189
▁англичанин	-11.1904
▁разглядыва	-11.1913
▁довери	-11.1917
▁центр	-11.1924
▁Павловны	-11.1927
▁порядке	-11.1927
▁Москва	-11.1927
▁Ракитин	-11.1927
▁маленькое	-11.1927
▁отчетливо	-11.1927
▁впервые	-11.1927
▁Старуха	-11.1927
▁жителей	-11.1928
▁умирать	-11.1928
▁поутру	-11.1928
▁сношения	-11.1928
▁артист	-11.1928
▁вплоть	-11.1928
▁покойник	-11.1929
▁улич	-11.1929
▁забуду	-11.1933
▁извиня	-11.1933
▁замок	-11.1939
▁отдам	-11.194
▁считая	-11.1943
▁грив	-11.1948
▁тронут	-11.1951
▁влажн	-11.1954
▁скрывал	-11.1964
▁земно	-11.1964
▁признав	-11.1966
ette	-11.1986
отря	-11.1986
▁повтори	-11.1995
Здравствуй	-11.2007
▁Нынче	-11.2007
▁ежедневно	-11.2007
▁канцеляри	-11.2007
▁цыпочках	-11.2007
грипп	-11.2007
▁любопытны	-11.2007
▁золотые	-11.2007
▁нерешительно	-11.2007
▁Откуда	-11.2007
▁Крафт	-11.2007
▁записки	-11.2007
▁Оттого	-11.2008
▁легион	-11.2008
▁способны	-11.2012
▁преступления	-11.2012
▁Слова	-11.2012
▁скуки	-11.2021
▁моё	-11.2026
▁возбуждал	-11.203
▁читаю	-11.204
▁отпуск	-11.2049
▁прощать	-11.2081
▁комисси	-11.2087
▁оскорбительн	-11.2087
▁Балашев	-11.2087
▁Джемма	-11.2087
▁хозяйстве	-11.2087
▁самолюбие	-11.2087
▁человеческой	-11.2087
▁вернулась	-11.2087
▁слышны	-11.2087
▁IX	-11.2088
гляди	-11.209
▁тоску	-11.2094
▁пускал	-11.2099
▁совершенств	-11.2113
▁выйду	-11.2113
▁выговор	-11.2119
▁чудак	-11.2119
служить	-11.2128
Страшн	-11.214
▁перевел	-11.2154
▁Альберт	-11.2167
▁Известно	-11.2167
▁Лопахин	-11.2167
▁вздыхая	-11.2167
▁гимназии	-11.2167
▁рассуждения	-11.2167
▁писатель	-11.2167
▁высоким	-11.2167
▁воспитыва	-11.2167
▁шпион	-11.2167
▁прогнал	-11.2167
▁багров	-11.2168
▁наскоро	-11.2168
▁подумав	-11.2169
▁сцену	-11.2169
▁проехал	-11.2169
▁Настя	-11.2169
▁внутри	-11.2169
▁попытк	-11.2171
▁отпустил	-11.2171
▁карета	-11.2171
▁зовет	-11.2174
▁забыт	-11.218
▁переставал	-11.2199
▁дыр	-11.2228
тащить	-11.2229
▁Вероятно	-11.2249
▁красоту	-11.2249
▁Львов	-11.2249
▁Едва	-11.2249
▁мысленно	-11.2249
▁гнезд	-11.2249
▁громким	-11.225
▁пышно	-11.225
▁Первое	-11.2251
▁уселся	-11.2251
▁Франции	-11.2252
▁злобой	-11.2253
▁праздничн	-11.2254
▁увижу	-11.226
▁пирог	-11.2262
▁ступень	-11.2265
ейшем	-11.2286
L	-11.2287
▁чьи	-11.229
▁осыпа	-11.2311
▁внушительно	-11.2331
▁заглянул	-11.2331
▁Масловой	-11.2331
▁негодования	-11.2331
▁отношений	-11.2331
▁Безухов	-11.2331
▁усердно	-11.2331
▁слушает	-11.2331
▁потребность	-11.2331
▁блаженн	-11.2331
▁сцены	-11.2332
▁лягу	-11.2333
▁соединя	-11.2335
▁значило	-11.2341
▁поконч	-11.2362
казывают	-11.2363
скочив	-11.2374
▁вырыва	-11.2396
▁открывал	-11.2401
рыгнул	-11.2409
▁Алексеевич	-11.2413
▁Матвеич	-11.2413
▁горизонт	-11.2413
▁мгновенье	-11.2413
▁подбородок	-11.2413
▁суббот	-11.2413
▁ярмарк	-11.2413
▁Извольте	-11.2413
▁Николаич	-11.2413
▁остальное	-11.2413
▁поссори	-11.2413
▁правительство	-11.2413
▁оставалась	-11.2413
▁помеща	-11.2413
▁чужих	-11.2413
▁денщик	-11.2413
▁оглуш	-11.2413
▁тетушка	-11.2413
▁придворн	-11.2414
▁маточка	-11.2416
▁юр	-11.2424
▁подчинен	-11.2427
▁шип	-11.2431
▁птич	-11.2438
▁страдаю	-11.2441
▁начну	-11.2459
▁заявл	-11.2461
▁натура	-11.2462
▁директор	-11.2496
▁писателя	-11.2496
▁сосредоточен	-11.2496
▁учрежден	-11.2496
▁Смоленск	-11.2497
▁шевеля	-11.2497
▁поступки	-11.2497
▁Дутлов	-11.2497
▁Бывало	-11.2497
▁пахнет	-11.2497
▁детям	-11.2497
▁принцип	-11.2498
▁внешне	-11.2498
▁увидать	-11.2498
▁настоящего	-11.2501
▁поедет	-11.2504
▁прибежал	-11.2506
▁постучал	-11.2509
▁восторжен	-11.251
▁След	-11.2522
ходишь	-11.2543
▁усиленн	-11.2543
▁освобожден	-11.255
▁очути	-11.2573
бегает	-11.2577
▁monsieur	-11.2581
▁Женщина	-11.2581
▁Савельич	-11.2581
▁бумажку	-11.2581
▁гимназист	-11.2581
▁попробовал	-11.2581
▁Ноздрев	-11.2581
***	-11.2581
▁чердак	-11.2581
▁генеральша	-11.2581
▁досады	-11.2581
▁Алешу	-11.2581
▁дождя	-11.2581
▁Павлу	-11.2581
▁зарыдал	-11.2581
▁искренни	-11.2581
▁золота	-11.2582
▁Казак	-11.2593
правилась	-11.26
пускает	-11.2603
▁обманул	-11.2613
озвращаясь	-11.2663
▁Михайло	-11.2663
▁Blanche	-11.2665
▁замечания	-11.2665
▁коляску	-11.2665
▁преодоле	-11.2665
▁разгоряч	-11.2665
▁Увидав	-11.2665
▁судьбы	-11.2665
▁Коновалов	-11.2665
▁невысок	-11.2665
▁Николаю	-11.2665
▁последним	-11.2666
▁золотым	-11.2666
▁Виктор	-11.2666
▁bien	-11.2666
▁гнусн	-11.2666
▁устремил	-11.2668
▁направлению	-11.2672
▁ничтожны	-11.2673
▁перекрест	-11.2674
▁врешь	-11.2675
ступали	-11.2701
▁гнил	-11.271
▁настоящем	-11.272
▁направля	-11.2731
▁разъясни	-11.2751
▁Карамазов	-11.2751
▁Перчихин	-11.2751
▁Фердыщенк	-11.2751
▁наполнен	-11.2751
▁распоряжа	-11.2751
▁тюрьмы	-11.2751
▁предводитель	-11.2751
▁Иисус	-11.2751
▁помещен	-11.2751
▁согласитесь	-11.2753
▁юности	-11.2755
▁легким	-11.2755
▁старшин	-11.2771
▁Барин	-11.2797
▁помири	-11.2798
ère	-11.28
▁Хотел	-11.2831
▁замечательно	-11.2837
▁распоряжения	-11.2837
▁революции	-11.2837
▁стремительно	-11.2837
▁вовремя	-11.2837
▁крыльце	-11.2837
#	-11.2837
▁четверо	-11.2837
▁разобрать	-11.2837
▁художественн	-11.2837
▁серебром	-11.2837
▁Лидия	-11.2837
▁человечество	-11.2837
▁решительным	-11.2839
▁придержива	-11.2841
▁окружил	-11.2847
▁участь	-11.2849
▁подавлен	-11.286
▁придавал	-11.2861
ообразно	-11.2869
своему	-11.288
▁торг	-11.2886
▁распространя	-11.2924
▁вспоминать	-11.2924
▁всхлипыва	-11.2924
▁исключительно	-11.2924
▁каждая	-11.2924
▁свадьбы	-11.2924
▁вздыхал	-11.2924
▁вооружен	-11.2924
▁возможны	-11.2924
▁музыки	-11.2924
▁судьбе	-11.2924
▁интриг	-11.2924
▁армия	-11.2924
▁бумажн	-11.2924
▁условий	-11.2924
▁Клещ	-11.2924
▁уменьш	-11.2925
▁приподняв	-11.2925
▁старательно	-11.2925
▁Дурак	-11.2926
▁Гагин	-11.2927
▁случится	-11.2929
▁наруша	-11.2936
▁страстны	-11.2937
▁побег	-11.2948
▁князе	-11.2958
▁признавал	-11.2958
▁просыпа	-11.2987
▁отступил	-11.3012
▁оттолкнул	-11.3012
▁спокоен	-11.3012
▁шампанского	-11.3012
▁Дуняша	-11.3012
▁беспокоил	-11.3012
▁отвечаю	-11.3012
▁Матвей	-11.3012
▁Дверь	-11.3012
▁пользы	-11.3012
▁петух	-11.3013
▁Семеныч	-11.3016
▁пропасть	-11.3018
▁Назар	-11.3019
▁фант	-11.3019
▁гриб	-11.3021
▁набок	-11.3022
▁вертел	-11.3026
▁выглядыва	-11.3026
▁кобыл	-11.3028
▁перебира	-11.303
▁добродушн	-11.3043
▁выпуск	-11.3044
▁отвел	-11.3047
▁избран	-11.3059
▁раздева	-11.3064
▁подража	-11.307
▁поняв	-11.3083
▁Bourienne	-11.31
▁восхища	-11.31
▁религии	-11.31
▁танцевал	-11.31
▁копейки	-11.31
▁привычка	-11.31
▁Зинаида	-11.31
▁последнем	-11.31
▁железной	-11.31
▁работой	-11.31
▁Ивановне	-11.3101
▁алтар	-11.3101
▁блестящими	-11.3101
▁Паншин	-11.3101
хождения	-11.3102
▁Ch	-11.3102
▁благословен	-11.3107
▁ничтожно	-11.3107
▁природа	-11.3107
▁англичан	-11.3126
▁сверну	-11.313
клонился	-11.3135
j	-11.3145
▁объявлен	-11.3153
▁хво	-11.3173
▁бездн	-11.3174
справедливость	-11.3179
▁Франц	-11.3184
▁plus	-11.3189
▁Аркадия	-11.3189
▁бульвар	-11.3189
▁жандарм	-11.3189
▁лихорадочн	-11.3189
▁прелестно	-11.3189
▁проворчал	-11.3189
▁Хохол	-11.3189
▁мускул	-11.319
▁грусти	-11.319
▁сведения	-11.319
▁Mais	-11.3192
▁чужим	-11.3193
▁огорчен	-11.3205
удовлетвор	-11.322
▁Василь	-11.3227
▁Непременно	-11.3279
▁Швабрин	-11.3279
▁благодарности	-11.3279
▁замечание	-11.3279
▁несчастье	-11.3279
▁свиданья	-11.3279
▁усмешкой	-11.3279
▁музыку	-11.328
▁дрогнул	-11.328
▁рассуждал	-11.328
▁устремлен	-11.328
▁слобод	-11.328
ard	-11.3281
▁важным	-11.3281
▁полагал	-11.3282
▁конверт	-11.3282
▁зверя	-11.3282
▁Илья	-11.3284
▁застрели	-11.3289
▁съел	-11.3292
▁подарил	-11.3293
▁герои	-11.3326
▁Nicolas	-11.337
▁Потугин	-11.337
▁батальон	-11.337
▁взросл	-11.337
▁презирал	-11.337
▁поцелуй	-11.337
▁мебель	-11.337
▁Бетси	-11.337
▁очнулся	-11.3371
▁Тебя	-11.3371
▁щеголь	-11.3371
▁подъезда	-11.3371
▁Римлян	-11.3372
▁бабушку	-11.3373
▁сбоку	-11.3374
▁погоди	-11.3376
▁мелким	-11.3377
▁довел	-11.3389
▁тесни	-11.3402
пешно	-11.3416
австрийск	-11.3462
▁Лембке	-11.3462
▁любопытства	-11.3462
▁наиболее	-11.3462
▁подтвержда	-11.3462
▁гибель	-11.3462
▁ненавистн	-11.3462
▁мельком	-11.3462
▁Покровск	-11.3462
▁пожелал	-11.3463
▁атаман	-11.3463
▁Свят	-11.3464
▁жаловаться	-11.3465
▁намерева	-11.3465
▁название	-11.3467
▁анти	-11.3468
▁принц	-11.3469
▁спутник	-11.3471
▁Одни	-11.3503
▁доклад	-11.3518
ечение	-11.3531
▁земск	-11.3531
▁шестнадцат	-11.3555
▁Господь	-11.3555
▁Чернышев	-11.3555
▁большинство	-11.3555
▁восклицания	-11.3555
▁жалованья	-11.3555
▁мягким	-11.3555
▁неуклюж	-11.3555
▁посещения	-11.3555
▁мохнат	-11.3555
▁орудия	-11.3555
▁рюмку	-11.3555
▁Евгения	-11.3555
▁Пускай	-11.3555
▁красота	-11.3555
▁бровями	-11.3555
▁подействовал	-11.3555
▁оборван	-11.3555
▁Неужто	-11.3555
▁XII	-11.3556
▁благодетель	-11.3556
▁усажива	-11.3557
▁позволения	-11.3558
▁лучших	-11.3559
холост	-11.3563
слушал	-11.357
▁славян	-11.358
▁жажда	-11.3584
▁сильней	-11.3585
Если	-11.3605
▁нескольк	-11.3611
▁укладыва	-11.3646
▁безжалостн	-11.3648
▁безнадежно	-11.3648
▁благополучно	-11.3648
▁принадлежит	-11.3648
▁снисходительно	-11.3648
▁лгать	-11.3648
▁фамилия	-11.3648
▁недоволен	-11.3648
▁вытащил	-11.3648
▁обморок	-11.3648
▁объявить	-11.3648
▁возражал	-11.3648
▁Италии	-11.3649
▁единственный	-11.3649
▁высшего	-11.3649
▁туалет	-11.3649
▁снизу	-11.3649
▁заснуть	-11.3651
▁Мити	-11.3655
▁прищурив	-11.3658
грузи	-11.3672
▁полетел	-11.3681
▁осматрива	-11.3717
Грие	-11.3729
вязался	-11.3733
▁умственн	-11.374
▁Рупрехт	-11.3743
▁въехал	-11.3743
▁запорожц	-11.3743
▁непрерывно	-11.3743
▁несчастия	-11.3743
▁петербургски	-11.3743
▁припадке	-11.3743
▁тринадцат	-11.3743
▁эффект	-11.3743
▁Хочешь	-11.3743
▁княгине	-11.3743
▁подергива	-11.3743
▁борьба	-11.3743
▁обеспеч	-11.3743
▁выиграл	-11.3743
able	-11.3743
▁Пауза	-11.3743
▁Алеши	-11.3743
▁сожаление	-11.3744
▁систем	-11.3744
▁доселе	-11.3744
▁происшедш	-11.3745
▁битв	-11.377
оречив	-11.3772
▁топот	-11.3774
садить	-11.3774
▁припомнил	-11.3784
▁стремя	-11.3789
▁масло	-11.3797
бегаю	-11.382
▁ГЛАВА	-11.3838
▁Глафир	-11.3838
▁Европы	-11.3838
▁Ремигий	-11.3838
▁насквозь	-11.3838
▁несчастлив	-11.3838
▁неудовольстви	-11.3838
▁огромные	-11.3838
▁самоубийств	-11.3838
▁испортил	-11.3838
▁окошко	-11.3838
▁страданий	-11.3838
▁фунт	-11.3838
▁приготовля	-11.3838
▁равнодушие	-11.3838
▁Вижу	-11.384
▁Васильич	-11.384
▁проект	-11.3847
▁гимн	-11.3866
▁личико	-11.3867
▁молоко	-11.3868
▁постиг	-11.3881
клонилась	-11.392
ux	-11.3924
▁присутству	-11.3934
▁исподлобья	-11.3934
▁Михельсон	-11.3934
▁Тимофеевна	-11.3934
▁кладбище	-11.3934
▁флигель	-11.3934
▁недоумева	-11.3934
▁соскочил	-11.3934
▁внутренно	-11.3934
▁прислони	-11.3934
▁столовую	-11.3934
▁великолепно	-11.3934
▁физическо	-11.3934
▁насильно	-11.3934
▁орден	-11.3935
▁потупил	-11.3935
▁тремя	-11.3937
▁курчав	-11.3938
▁надеясь	-11.3939
▁ленив	-11.3941
▁условие	-11.3941
▁мешаю	-11.3957
▁милосерд	-11.4031
▁глубже	-11.4031
▁демократ	-11.4031
▁карандаш	-11.4031
▁конфуз	-11.4031
▁окрест	-11.4031
▁подозрительно	-11.4031
▁социалист	-11.4031
▁застенчив	-11.4031
▁книжку	-11.4031
▁пальцев	-11.4031
▁девушек	-11.4031
▁Письмо	-11.4031
▁тягостн	-11.4031
▁колебл	-11.4031
▁пламенн	-11.4031
▁благодарен	-11.4032
▁настоящую	-11.4033
▁тяжко	-11.4033
▁кредит	-11.4033
▁задумыва	-11.4035
▁колдун	-11.4037
▁укреплен	-11.4037
▁ободри	-11.404
▁кисл	-11.4047
▁светлым	-11.4049
▁достойно	-11.4053
двинут	-11.4054
думаю	-11.4067
▁расскажи	-11.4087
▁игрок	-11.4116
▁добродетели	-11.4129
▁ощущения	-11.4129
▁поблагодари	-11.4129
▁приостанови	-11.4129
▁фамилии	-11.4129
▁преврати	-11.4129
▁Гаврило	-11.4129
▁прекратил	-11.4129
▁итальянск	-11.4129
▁Вскоре	-11.4129
▁благодарность	-11.4129
▁имуществ	-11.4129
▁Парфенович	-11.413
▁скрылся	-11.413
▁оживил	-11.4131
▁начинать	-11.4131
▁короля	-11.4133
▁мешать	-11.4134
сокруш	-11.4143
кладывая	-11.4163
▁вбежал	-11.4166
▁целуя	-11.4173
пускаю	-11.4182
▁откровенн	-11.4183
двигаясь	-11.42
▁Очевидно	-11.4228
▁бесполезно	-11.4228
▁произошла	-11.4228
▁сентября	-11.4228
▁пойдешь	-11.4228
▁жалованье	-11.4228
▁надеяться	-11.4228
▁раздражал	-11.4228
▁напряг	-11.4228
▁вряд	-11.4228
▁подошли	-11.4228
▁барыни	-11.4228
▁детской	-11.4228
▁XIII	-11.4229
▁рыдал	-11.4229
▁гладко	-11.423
▁Глуп	-11.4231
▁съест	-11.4232
▁текст	-11.4234
▁построен	-11.4236
▁совеща	-11.4244
▁прикрыв	-11.4257
▁бранил	-11.4258
▁полтин	-11.4274
ессе	-11.4275
натуральн	-11.4285
▁постоянн	-11.4287
▁происходил	-11.4293
помню	-11.4293
q	-11.4303
▁grand	-11.4328
▁Епанчин	-11.4328
▁Медиолан	-11.4328
▁Михайлыч	-11.4328
▁Мозгляков	-11.4328
▁Павлыч	-11.4328
▁Трудно	-11.4328
▁Флавиан	-11.4328
▁исключа	-11.4328
▁исступлении	-11.4328
▁кухарка	-11.4328
▁нахмурен	-11.4328
▁последняя	-11.4328
▁коляски	-11.4328
▁добива	-11.4328
▁Ивановну	-11.4328
▁Юлия	-11.4329
▁рассчитывал	-11.4329
▁промеж	-11.4329
▁кровав	-11.4329
▁подойти	-11.433
▁вороча	-11.4341
Запис	-11.4341
▁плетен	-11.4353
▁плоск	-11.4354
▁мутны	-11.437
▁палач	-11.438
▁Дубровский	-11.4429
▁Некоторые	-11.4429
▁Сергеич	-11.4429
▁госпожа	-11.4429
▁пятнадцати	-11.4429
▁усадьб	-11.4429
▁Государь	-11.4429
▁серебряно	-11.4429
▁прежним	-11.4429
▁проклина	-11.4429
▁пятьсот	-11.4429
▁эгоист	-11.4429
▁XIX	-11.4429
▁хотим	-11.4429
▁Сергее	-11.443
▁Матвеев	-11.443
▁франк	-11.4433
царап	-11.4438
▁оборвал	-11.4452
▁плыл	-11.4481
▁кружил	-11.4487
▁государственны	-11.4512
гонит	-11.4522
▁коляске	-11.4531
▁мгновений	-11.4531
▁огромный	-11.4531
▁требования	-11.4531
▁шёпот	-11.4531
▁прогресс	-11.4531
▁равнодушны	-11.4531
▁Германн	-11.4531
▁подмигива	-11.4531
▁тоскливо	-11.4531
▁собственным	-11.4531
▁непонятны	-11.4531
▁бороться	-11.4531
▁аршин	-11.4531
▁коммент	-11.4531
▁аптек	-11.4532
▁переехал	-11.4532
▁выгнал	-11.4532
▁благороднейш	-11.4532
▁мерзост	-11.4532
практич	-11.4537
▁Ворот	-11.4538
писываю	-11.4539
▁бомб	-11.4543
▁спич	-11.4551
è	-11.4576
▁связыва	-11.4579
▁старинно	-11.4586
▁бессонн	-11.4593
▁Vous	-11.4634
▁Агафья	-11.4634
▁Собакевич	-11.4634
▁Стебельков	-11.4634
▁бестолков	-11.4634
▁национальн	-11.4634
▁одиннадцать	-11.4634
▁октября	-11.4634
▁путешествия	-11.4634
▁семнадцат	-11.4634
▁уговаривал	-11.4634
▁улыбкою	-11.4634
▁Подожди	-11.4634
▁расстегну	-11.4634
▁дуэли	-11.4634
▁сказки	-11.4634
▁овладев	-11.4634
▁одежды	-11.4634
▁вмешива	-11.4634
▁завопил	-11.4634
▁варвар	-11.4634
▁сомнение	-11.4634
▁отыскал	-11.4635
▁молодежи	-11.4635
▁Аграфен	-11.4635
▁полагает	-11.4635
▁свинья	-11.4635
▁жители	-11.4635
▁деревянно	-11.4637
▁колпак	-11.4639
▁поразительн	-11.4641
▁остроумн	-11.4642
думывая	-11.4667
▁равны	-11.4668
Ц	-11.4694
▁выказыва	-11.4696
▁Рассказыва	-11.4728
▁отрек	-11.4732
▁производит	-11.4732
▁homme	-11.4738
▁Маслобоев	-11.4738
▁Многие	-11.4738
▁фырка	-11.4738
▁эпизод	-11.4738
▁Слушаю	-11.4738
▁подальше	-11.4739
▁умирает	-11.4739
▁Полозов	-11.4739
▁нахмурившись	-11.4739
▁Утром	-11.474
▁яблок	-11.474
▁позвонил	-11.4742
▁взрыв	-11.4743
▁развернул	-11.4743
▁уродлив	-11.4753
▁нюх	-11.4755
кидывая	-11.4758
▁перевяз	-11.4796
▁передавал	-11.4824
▁признаю	-11.4832
................	-11.4844
▁ассигн	-11.4844
▁заключить	-11.4844
▁невозможны	-11.4844
▁толстые	-11.4844
▁племянниц	-11.4844
▁созерца	-11.4844
▁движении	-11.4844
▁сряду	-11.4844
▁стеклянн	-11.4844
▁Тушин	-11.4844
▁удерживал	-11.4844
▁хитры	-11.4844
▁иностранн	-11.4844
▁расположи	-11.4845
▁жалеть	-11.4845
▁свобода	-11.4845
▁барыне	-11.4852
▁лечить	-11.4852
▁правильны	-11.4862
▁завещан	-11.4869
▁Говоря	-11.4922
▁распусти	-11.4947
▁посоветовал	-11.495
▁четырнадцат	-11.495
▁Совершенно	-11.495
▁московско	-11.495
▁каторжн	-11.495
▁Ярослав	-11.495
▁оставьте	-11.495
▁родителей	-11.495
▁полдень	-11.495
▁важный	-11.495
▁ругательств	-11.495
▁удобно	-11.495
▁тускло	-11.495
▁отклик	-11.495
▁боялись	-11.4951
▁казацк	-11.4953
▁праведн	-11.4957
▁холм	-11.4957
▁окружал	-11.4958
▁moi	-11.4962
Неужели	-11.5014
▁либерал	-11.5048
▁кудряв	-11.5058
▁неотразим	-11.5058
▁Напрасно	-11.5058
▁блеснул	-11.5058
▁отправиться	-11.5058
▁рыдания	-11.5058
▁тишине	-11.5058
▁фельдшер	-11.5058
▁разошлись	-11.5058
▁успокоен	-11.5058
▁привычки	-11.5058
▁тихая	-11.5058
▁бастион	-11.5058
▁детстве	-11.5058
▁квартал	-11.5058
▁удерживая	-11.5058
▁приложил	-11.5058
▁посмел	-11.506
▁сжимал	-11.506
▁сидевше	-11.5061
▁звери	-11.5062
▁Против	-11.5069
летнего	-11.5075
▁обидеть	-11.509
▁одолжение	-11.5166
▁раздумье	-11.5166
▁обернулась	-11.5166
▁роскошь	-11.5166
▁эгоизм	-11.5166
▁Катерины	-11.5166
▁протяжн	-11.5166
▁процент	-11.5166
▁черкес	-11.5166
Дневник	-11.5166
▁доказывал	-11.5166
▁поможет	-11.5166
▁коляска	-11.5167
▁расхажива	-11.5167
▁тьме	-11.5167
▁юнкер	-11.5167
▁Актер	-11.5167
▁охран	-11.5168
▁вызвать	-11.5168
▁высунул	-11.5172
▁калош	-11.5185
▁изумил	-11.5248
▁дьяк	-11.5248
▁статск	-11.5271
▁Трофимов	-11.5274
▁независим	-11.5274
▁религиозн	-11.5276
▁Пселдонимов	-11.5276
▁Птицын	-11.5276
▁брезгливо	-11.5276
▁определил	-11.5276
▁оскорбить	-11.5276
▁осужден	-11.5276
▁отечества	-11.5276
▁предстояще	-11.5276
▁Анатоля	-11.5276
▁борьбе	-11.5276
▁публика	-11.5276
▁благородный	-11.5276
▁неосторожно	-11.5276
▁Володе	-11.5276
▁Толпа	-11.5276
▁привстал	-11.5277
▁оратор	-11.5277
▁зеленым	-11.5278
безопас	-11.5278
▁согласны	-11.528
▁двойн	-11.5329
дыхан	-11.5337
▁замечает	-11.5387
▁крыльцу	-11.5387
▁неудержимо	-11.5387
▁оживля	-11.5387
▁телеграмм	-11.5387
▁эскадрон	-11.5387
▁замечаю	-11.5387
▁Манилов	-11.5387
▁приветливо	-11.5387
▁участник	-11.5387
▁освещал	-11.5387
▁требовать	-11.5387
▁освеж	-11.5387
▁пошевели	-11.5388
▁человеческий	-11.5388
▁величав	-11.5388
▁негодяй	-11.5388
▁ожидает	-11.5388
▁стекло	-11.5388
смотрю	-11.5399
▁храп	-11.5417
▁смотревш	-11.5432
N	-11.5455
гибал	-11.5463
▁продолжительн	-11.55
▁сестрой	-11.55
▁Брюсов	-11.55
▁Мефистофел	-11.55
▁Цыган	-11.55
▁горничная	-11.55
▁невыразимо	-11.55
▁недоставало	-11.55
▁пространство	-11.55
▁зонтик	-11.55
▁Дьявол	-11.55
▁Ренату	-11.55
▁призрак	-11.55
▁начальства	-11.55
▁шляпы	-11.55
▁Хотите	-11.55
▁писем	-11.55
▁Мишка	-11.55
▁Вопрос	-11.55
▁секундант	-11.55
▁факел	-11.5503
▁руководит	-11.5504
▁либеральн	-11.5511
▁умирал	-11.5511
стоящи	-11.5521
▁Сенат	-11.5575
arm	-11.5576
▁эконом	-11.5579
▁существующ	-11.5597
▁Товарищ	-11.5613
▁Чебутыкин	-11.5613
▁бутылки	-11.5613
▁рысью	-11.5613
▁служба	-11.5613
▁Поэтому	-11.5613
▁читатель	-11.5613
▁faut	-11.5613
▁представьте	-11.5613
▁хутор	-11.5613
▁широкие	-11.5613
▁непривыч	-11.5613
▁подожди	-11.5613
▁высокие	-11.5613
▁шорох	-11.5613
▁оказались	-11.5613
▁заклина	-11.5613
▁рубахе	-11.5614
▁раскаяние	-11.5614
▁записка	-11.5615
▁Стыд	-11.5615
▁хруст	-11.5616
скакивал	-11.5616
▁шапка	-11.5619
▁Большо	-11.5628
▁Книг	-11.5632
вязывал	-11.5643
▁madame	-11.5728
▁Алексеич	-11.5728
▁Капитан	-11.5728
▁Кармазинов	-11.5728
▁Курагин	-11.5728
▁Тузенбах	-11.5728
▁вглядываясь	-11.5728
▁волшебн	-11.5728
▁зрелище	-11.5728
▁культурн	-11.5728
▁читателя	-11.5728
▁Делесов	-11.5728
▁изнеможен	-11.5728
▁зеленые	-11.5728
▁балаган	-11.5728
▁Впереди	-11.5728
▁счастию	-11.5728
▁назначил	-11.5729
▁судорог	-11.5729
▁полгода	-11.5729
▁великолепны	-11.5729
▁наследство	-11.5729
▁бессильно	-11.5729
гладить	-11.5732
▁пакет	-11.5735
▁сочиня	-11.575
▁шелково	-11.5756
тянуть	-11.5768
▁высшем	-11.5769
иновник	-11.5771
▁дипломат	-11.5807
Война	-11.583
▁преимуществ	-11.5843
▁аппетит	-11.5844
▁последствия	-11.5844
▁прикосновени	-11.5844
▁Вершинин	-11.5844
▁Положим	-11.5844
▁мгновения	-11.5844
▁наблюдения	-11.5844
▁неизвестны	-11.5844
▁некоторой	-11.5844
▁определить	-11.5844
▁сладостн	-11.5844
▁танцевать	-11.5844
▁употреблен	-11.5844
▁удастся	-11.5844
▁широкий	-11.5844
▁юноши	-11.5845
▁содрога	-11.5845
▁десятки	-11.5845
▁Василия	-11.5845
▁Ренате	-11.5845
▁Ромась	-11.5845
▁осени	-11.5845
▁приготовить	-11.5847
▁беременн	-11.5853
▁неизменно	-11.5855
▁поэтическ	-11.5858
▁заслон	-11.5868
▁Галл	-11.5877
здравствуй	-11.5885
▁расспроси	-11.5906
сматривать	-11.5928
▁Каратаев	-11.5962
▁Настасьи	-11.5962
▁Панталеоне	-11.5962
▁ограничи	-11.5962
▁одушевлен	-11.5962
▁определя	-11.5962
▁официальн	-11.5962
▁презрения	-11.5962
▁взаймы	-11.5962
▁некотором	-11.5962
▁таракан	-11.5962
▁заслужив	-11.5962
▁бледен	-11.5962
▁собственные	-11.5962
▁провожал	-11.5962
▁возмуща	-11.5962
▁локоть	-11.5962
▁догнал	-11.5962
▁Пришел	-11.5963
avez	-11.5963
▁королев	-11.5963
▁комитет	-11.5964
▁замахал	-11.5965
▁решимость	-11.5966
▁привычны	-11.5968
▁завоева	-11.5983
зрение	-11.5988
▁отражен	-11.601
казанное	-11.6014
сидеть	-11.6046
творить	-11.6056
▁прислуш	-11.6065
▁бумажки	-11.6081
▁княжну	-11.6081
▁красотой	-11.6081
▁побежден	-11.6081
▁подслушива	-11.6081
▁предупредить	-11.6081
▁пролепетал	-11.6081
▁шестьдесят	-11.6081
▁возмущен	-11.6081
▁выслушива	-11.6081
▁социально	-11.6081
▁получше	-11.6081
▁похудел	-11.6081
▁высоты	-11.6081
▁возмути	-11.6082
▁рубахи	-11.6082
▁внушал	-11.6082
▁мотив	-11.6084
▁неясны	-11.6119
строит	-11.6132
▁рассказываю	-11.6147
▁Грушницкий	-11.6202
▁засверкал	-11.6202
▁небольшого	-11.6202
▁отвернулась	-11.6202
▁прибавить	-11.6202
▁рыжий	-11.6202
▁свидетелем	-11.6202
▁сконфужен	-11.6202
▁хозяйки	-11.6202
▁Бутлер	-11.6202
▁гримас	-11.6202
▁редактор	-11.6202
▁золотых	-11.6202
▁толстая	-11.6202
▁червон	-11.6202
▁красоте	-11.6202
▁деспот	-11.6202
▁сравнении	-11.6202
▁шапке	-11.6202
▁Работа	-11.6202
▁прежний	-11.6202
▁опомнился	-11.6202
▁кружок	-11.6202
▁Мавра	-11.6202
▁предчувствие	-11.6202
▁обряд	-11.6202
▁партию	-11.6202
▁ожидаю	-11.6203
▁бесчувствен	-11.6203
▁Фауст	-11.6204
▁сверкающ	-11.6204
▁привычно	-11.6205
▁безобразно	-11.621
думаешь	-11.6259
▁растяну	-11.6321
▁Клянусь	-11.6324
▁Кукушкин	-11.6324
▁Пасынков	-11.6324
▁Сильвия	-11.6324
▁замечательны	-11.6324
▁каблук	-11.6324
▁ненавижу	-11.6324
▁побледнев	-11.6324
▁подпрыгива	-11.6324
▁порядочный	-11.6324
▁презирает	-11.6324
▁сражении	-11.6324
▁сумасшедше	-11.6324
▁услыхав	-11.6324
▁успокаива	-11.6324
▁фамилию	-11.6324
▁бронзов	-11.6324
▁дышит	-11.6324
▁подскочил	-11.6324
▁постарался	-11.6324
▁перегляну	-11.6324
▁покровительство	-11.6324
▁дневник	-11.6324
▁сумрак	-11.6324
▁важные	-11.6324
▁зимой	-11.6324
▁объед	-11.6324
▁достижени	-11.6324
▁грыз	-11.6325
▁Прохор	-11.6328
▁базар	-11.6328
▁шлепа	-11.633
▁осветил	-11.634
voi	-11.6395
▁злобн	-11.6418
▁Никифор	-11.6446
▁пренебрег	-11.6447
▁Билибин	-11.6447
▁Ферапонт	-11.6447
▁институт	-11.6447
▁происшествие	-11.6447
▁прошедшее	-11.6447
▁фельетон	-11.6447
▁фортепьяно	-11.6447
▁Шиллер	-11.6447
▁ограничен	-11.6447
▁рассмеялся	-11.6447
▁локтя	-11.6447
▁случаи	-11.6447
▁послышалось	-11.6447
▁целковых	-11.6447
▁человеческое	-11.6447
▁отвечай	-11.6447
▁отошла	-11.6447
▁приказанию	-11.6447
▁махнув	-11.6447
▁ладони	-11.6447
▁Герцен	-11.6447
ance	-11.6448
▁Расскажи	-11.6448
▁мельниц	-11.645
▁деревенско	-11.6471
▁роково	-11.648
▁кольцо	-11.6482
Господи	-11.6528
▁Бенигсен	-11.6572
▁Катавасов	-11.6572
▁кампании	-11.6572
▁культуры	-11.6572
▁наслаждения	-11.6572
▁отворачива	-11.6572
▁социализм	-11.6572
▁трогательно	-11.6572
▁услышать	-11.6572
▁паспорт	-11.6572
▁правительства	-11.6572
▁оканчива	-11.6572
▁останусь	-11.6572
▁отскочил	-11.6572
▁влияния	-11.6572
▁поцелуя	-11.6572
▁героев	-11.6572
▁цифр	-11.6572
▁десятка	-11.6572
▁всадник	-11.6572
▁поближе	-11.6572
▁кресел	-11.6572
▁пробужд	-11.6573
▁политическо	-11.6573
▁одобрительно	-11.6574
▁многочисленн	-11.6574
▁закурил	-11.6574
▁ревнив	-11.6578
Московск	-11.6584
▁мощн	-11.6592
▁Рассказ	-11.6599
▁разрешил	-11.6601
▁пропуск	-11.6631
A	-11.6655
адъютант	-11.6655
говорит	-11.667
▁монарх	-11.6699
▁сосредоточи	-11.6699
▁Селифан	-11.6699
▁Щербацк	-11.6699
▁малейшей	-11.6699
▁ноября	-11.6699
▁фокус	-11.6699
▁Вместе	-11.6699
▁коротким	-11.6699
▁апостол	-11.6699
▁движений	-11.6699
▁Сергеевич	-11.6699
▁аллее	-11.6699
▁люльк	-11.6699
▁ярким	-11.67
▁глянул	-11.67
▁трогал	-11.6701
▁безумие	-11.6702
▁соединить	-11.6706
▁оторвал	-11.674
▁отвратительны	-11.6741
младший	-11.6778
▁усилил	-11.6786
▁скачк	-11.6792
внезапн	-11.6826
▁mademoiselle	-11.6827
▁литературе	-11.6827
▁мальчишки	-11.6827
▁наполовину	-11.6827
▁недостаточно	-11.6827
▁порядком	-11.6827
▁устройство	-11.6827
▁ожидание	-11.6827
▁сущность	-11.6827
▁компании	-11.6827
▁публике	-11.6827
▁поезжай	-11.6827
скочить	-11.6827
▁Приехал	-11.6827
▁турецк	-11.6827
▁Иоанн	-11.6827
▁сплошн	-11.6827
▁разрешить	-11.683
▁выпуч	-11.6832
▁жгуч	-11.6833
▁таинств	-11.6853
▁мужествен	-11.6859
▁церкв	-11.6879
▁греческ	-11.6886
▁нахмурил	-11.6935
▁протянут	-11.6937
▁усмеха	-11.6952
▁Бьоринг	-11.6957
▁блондин	-11.6957
▁побольше	-11.6957
▁дерзость	-11.6957
▁лихорадке	-11.6957
▁поморщился	-11.6957
▁путешественник	-11.6957
▁раскрасне	-11.6957
▁префект	-11.6957
▁значении	-11.6957
▁альбом	-11.6957
▁засмеялись	-11.6957
▁Настасье	-11.6957
▁орудие	-11.6957
▁дважды	-11.6957
▁сожаления	-11.6957
▁участвовать	-11.6957
▁чужого	-11.6957
▁потащил	-11.6957
шедшей	-11.6957
▁выставил	-11.6958
шедшая	-11.6958
▁преследу	-11.6958
▁Подумай	-11.6959
▁самодовольно	-11.696
▁штык	-11.6978
начальник	-11.7044
▁встревожен	-11.7088
▁затрудни	-11.7088
▁Печорин	-11.7088
▁Татарин	-11.7088
▁батареи	-11.7088
▁вправду	-11.7088
▁горничной	-11.7088
▁драгоценно	-11.7088
▁исправник	-11.7088
▁непреодолим	-11.7088
▁презирать	-11.7088
▁размышления	-11.7088
▁спокойствия	-11.7088
▁хладнокровно	-11.7088
▁Лошади	-11.7088
▁свидании	-11.7088
▁публику	-11.7088
▁Сергий	-11.7088
▁потребности	-11.7088
▁оказалась	-11.7088
▁приобрел	-11.7088
▁скамье	-11.7088
▁шевельн	-11.7089
▁поцелуе	-11.7089
▁заслуг	-11.7089
▁равномерно	-11.7089
▁сравнительно	-11.7089
▁приехавши	-11.7092
▁пропитан	-11.7093
ступают	-11.7144
▁брошенн	-11.717
Ш	-11.7178
плакал	-11.7195
клонившись	-11.7222
▁ex	-11.7222
▁prince	-11.7222
▁Варвары	-11.7222
▁Ибрагим	-11.7222
▁Келлер	-11.7222
▁английско	-11.7222
▁всевозможны	-11.7222
▁герцог	-11.7222
▁действий	-11.7222
▁зоолог	-11.7222
▁инструмент	-11.7222
▁промолчал	-11.7222
▁толстую	-11.7222
▁стремление	-11.7222
▁обществу	-11.7222
▁Леноре	-11.7222
▁потолок	-11.7222
▁Ковалев	-11.7222
▁оправдание	-11.7222
▁истощ	-11.7227
▁бранить	-11.7237
▁хищн	-11.7246
дразнит	-11.7267
▁Абрамович	-11.7357
▁Аустерлиц	-11.7357
▁Светлогуб	-11.7357
▁впрямь	-11.7357
▁родственниц	-11.7357
▁enfant	-11.7357
▁захлопнул	-11.7357
▁предупредил	-11.7357
▁революционн	-11.7357
▁свадьба	-11.7357
▁собственных	-11.7357
▁элемент	-11.7357
▁Филипповны	-11.7357
▁человечеству	-11.7357
▁предлагаю	-11.7357
▁пальчик	-11.7357
▁запретил	-11.7357
презрительн	-11.7357
▁разряд	-11.7357
▁недовольно	-11.7358
▁конфет	-11.7358
▁честным	-11.7359
ign	-11.739
▁малейши	-11.7407
тяжки	-11.7418
vous	-11.745
▁Петунников	-11.7494
интеллигент	-11.7494
▁Еремеич	-11.7494
▁Мастакович	-11.7494
▁благосклонно	-11.7494
▁непосредственно	-11.7494
▁поглядеть	-11.7494
▁подобостраст	-11.7494
▁провозгласил	-11.7494
▁революционер	-11.7494
▁тарантас	-11.7494
▁услышит	-11.7494
▁гвардии	-11.7494
▁пружин	-11.7494
▁болван	-11.7494
▁пламя	-11.7494
▁публики	-11.7494
▁Сергея	-11.7494
▁неутомим	-11.7494
▁Ерошка	-11.7494
▁Оставьте	-11.7494
▁Сибири	-11.7494
▁тихие	-11.7494
▁незначительн	-11.7494
▁террасу	-11.7494
▁начальству	-11.7494
▁благородным	-11.7494
▁рванул	-11.7497
▁беспорядочн	-11.7521
▁освобожд	-11.7543
M	-11.7589
▁Весловский	-11.7633
▁бессмысленны	-11.7633
▁полотенце	-11.7633
▁распространен	-11.7633
▁чрезвычайным	-11.7633
▁присяжных	-11.7633
▁шепчет	-11.7633
▁замечать	-11.7633
▁бородкой	-11.7633
▁рекрут	-11.7633
▁проявля	-11.7633
▁заявить	-11.7633
▁заглуша	-11.7633
▁удерживать	-11.7633
▁прелестны	-11.7633
▁Дубков	-11.7633
▁обознача	-11.7633
▁вторично	-11.7633
▁терпение	-11.7633
▁примеча	-11.7634
▁памятник	-11.7634
▁однообразно	-11.7635
▁высовыва	-11.7636
▁коньяк	-11.7652
▁высокомерн	-11.7662
▁текущ	-11.7692
ставленный	-11.773
▁подступ	-11.7733
колотил	-11.7759
▁charmant	-11.7773
▁Пульхери	-11.7773
▁Тургенев	-11.7773
▁всплеснул	-11.7773
▁драгоценны	-11.7773
▁затылок	-11.7773
▁орудий	-11.7773
Ю	-12.0489
D	-12.087
E	-12.1266
S	-12.1678
P	-12.2108
C	-12.459
B	-12.4876
Щ	-12.6108
{	-12.7143
«	-12.8705
„	-13.4299
&	-13.43
